{
  "version": "1.0",
  "truncation": null,
  "padding": null,
  "added_tokens": [
    {
      "id": 0,
      "content": "<|endoftext|>",
      "single_word": false,
      "lstrip": false,
      "rstrip": false,
      "normalized": false,
      "special": true
    },
    {
      "id": 1,
      "content": "<|im_start|>",
      "single_word": false,
      "lstrip": false,
      "rstrip": false,
      "normalized": false,
      "special": true
    },
    {
      "id": 2,
      "content": "<|im_end|>",
      "single_word": false,
      "lstrip": false,
      "rstrip": false,
      "normalized": false,
      "special": true
    },
    {
      "id": 3,
      "content": "<|padding|>",
      "single_word": false,
      "lstrip": false,
      "rstrip": false,
      "normalized": false,
      "special": true
    },
    {
      "id": 4,
      "content": "<|unknown|>",
      "single_word": false,
      "lstrip": false,
      "rstrip": false,
      "normalized": false,
      "special": true
    }
  ],
  "normalizer": null,
  "pre_tokenizer": {
    "type": "ByteLevel",
    "add_prefix_space": false,
    "trim_offsets": true,
    "use_regex": true
  },
  "post_processor": null,
  "decoder": {
    "type": "ByteLevel",
    "add_prefix_space": true,
    "trim_offsets": true,
    "use_regex": true
  },
  "model": {
    "type": "BPE",
    "dropout": null,
    "unk_token": "<|unknown|>",
    "continuing_subword_prefix": null,
    "end_of_word_suffix": null,
    "fuse_unk": false,
    "byte_fallback": false,
    "ignore_merges": false,
    "vocab": {
      "<|endoftext|>": 0,
      "<|im_start|>": 1,
      "<|im_end|>": 2,
      "<|padding|>": 3,
      "<|unknown|>": 4,
      "!": 5,
      "\"": 6,
      "#": 7,
      "$": 8,
      "%": 9,
      "&": 10,
      "'": 11,
      "(": 12,
      ")": 13,
      "*": 14,
      "+": 15,
      ",": 16,
      "-": 17,
      ".": 18,
      "/": 19,
      "0": 20,
      "1": 21,
      "2": 22,
      "3": 23,
      "4": 24,
      "5": 25,
      "6": 26,
      "7": 27,
      "8": 28,
      "9": 29,
      ":": 30,
      ";": 31,
      "<": 32,
      "=": 33,
      ">": 34,
      "?": 35,
      "@": 36,
      "A": 37,
      "B": 38,
      "C": 39,
      "D": 40,
      "E": 41,
      "F": 42,
      "G": 43,
      "H": 44,
      "I": 45,
      "J": 46,
      "K": 47,
      "L": 48,
      "M": 49,
      "N": 50,
      "O": 51,
      "P": 52,
      "Q": 53,
      "R": 54,
      "S": 55,
      "T": 56,
      "U": 57,
      "V": 58,
      "W": 59,
      "X": 60,
      "Y": 61,
      "Z": 62,
      "[": 63,
      "\\": 64,
      "]": 65,
      "^": 66,
      "_": 67,
      "`": 68,
      "a": 69,
      "b": 70,
      "c": 71,
      "d": 72,
      "e": 73,
      "f": 74,
      "g": 75,
      "h": 76,
      "i": 77,
      "j": 78,
      "k": 79,
      "l": 80,
      "m": 81,
      "n": 82,
      "o": 83,
      "p": 84,
      "q": 85,
      "r": 86,
      "s": 87,
      "t": 88,
      "u": 89,
      "v": 90,
      "w": 91,
      "x": 92,
      "y": 93,
      "z": 94,
      "{": 95,
      "|": 96,
      "}": 97,
      "~": 98,
      "¡": 99,
      "¢": 100,
      "£": 101,
      "¤": 102,
      "¥": 103,
      "¦": 104,
      "§": 105,
      "¨": 106,
      "©": 107,
      "ª": 108,
      "«": 109,
      "¬": 110,
      "®": 111,
      "¯": 112,
      "°": 113,
      "±": 114,
      "²": 115,
      "³": 116,
      "´": 117,
      "µ": 118,
      "¶": 119,
      "·": 120,
      "¸": 121,
      "¹": 122,
      "º": 123,
      "»": 124,
      "¼": 125,
      "½": 126,
      "¾": 127,
      "¿": 128,
      "À": 129,
      "Á": 130,
      "Â": 131,
      "Ã": 132,
      "Ä": 133,
      "Å": 134,
      "Æ": 135,
      "Ç": 136,
      "È": 137,
      "É": 138,
      "Ê": 139,
      "Ë": 140,
      "Ì": 141,
      "Í": 142,
      "Î": 143,
      "Ï": 144,
      "Ð": 145,
      "Ñ": 146,
      "Ò": 147,
      "Ó": 148,
      "Ô": 149,
      "Õ": 150,
      "Ö": 151,
      "×": 152,
      "Ø": 153,
      "Ù": 154,
      "Ú": 155,
      "Û": 156,
      "Ü": 157,
      "Ý": 158,
      "Þ": 159,
      "ß": 160,
      "à": 161,
      "á": 162,
      "â": 163,
      "ã": 164,
      "ä": 165,
      "å": 166,
      "æ": 167,
      "ç": 168,
      "è": 169,
      "é": 170,
      "ê": 171,
      "ë": 172,
      "ì": 173,
      "í": 174,
      "î": 175,
      "ï": 176,
      "ð": 177,
      "ñ": 178,
      "ò": 179,
      "ó": 180,
      "ô": 181,
      "õ": 182,
      "ö": 183,
      "÷": 184,
      "ø": 185,
      "ù": 186,
      "ú": 187,
      "û": 188,
      "ü": 189,
      "ý": 190,
      "þ": 191,
      "ÿ": 192,
      "Ā": 193,
      "ā": 194,
      "Ă": 195,
      "ă": 196,
      "Ą": 197,
      "ą": 198,
      "Ć": 199,
      "ć": 200,
      "Ĉ": 201,
      "ĉ": 202,
      "Ċ": 203,
      "ċ": 204,
      "Č": 205,
      "č": 206,
      "Ď": 207,
      "ď": 208,
      "Đ": 209,
      "đ": 210,
      "Ē": 211,
      "ē": 212,
      "Ĕ": 213,
      "ĕ": 214,
      "Ė": 215,
      "ė": 216,
      "Ę": 217,
      "ę": 218,
      "Ě": 219,
      "ě": 220,
      "Ĝ": 221,
      "ĝ": 222,
      "Ğ": 223,
      "ğ": 224,
      "Ġ": 225,
      "ġ": 226,
      "Ģ": 227,
      "ģ": 228,
      "Ĥ": 229,
      "ĥ": 230,
      "Ħ": 231,
      "ħ": 232,
      "Ĩ": 233,
      "ĩ": 234,
      "Ī": 235,
      "ī": 236,
      "Ĭ": 237,
      "ĭ": 238,
      "Į": 239,
      "į": 240,
      "İ": 241,
      "ı": 242,
      "Ĳ": 243,
      "ĳ": 244,
      "Ĵ": 245,
      "ĵ": 246,
      "Ķ": 247,
      "ķ": 248,
      "ĸ": 249,
      "Ĺ": 250,
      "ĺ": 251,
      "Ļ": 252,
      "ļ": 253,
      "Ľ": 254,
      "ľ": 255,
      "Ŀ": 256,
      "ŀ": 257,
      "Ł": 258,
      "ł": 259,
      "Ń": 260,
      "Ġt": 261,
      "Ġa": 262,
      "in": 263,
      "he": 264,
      "re": 265,
      "on": 266,
      "Ġthe": 267,
      "er": 268,
      "at": 269,
      "Ġs": 270,
      "Ġo": 271,
      "en": 272,
      "Ġc": 273,
      "es": 274,
      "is": 275,
      "Ġw": 276,
      "nd": 277,
      "it": 278,
      "or": 279,
      "al": 280,
      "Ġp": 281,
      "ing": 282,
      "Ġf": 283,
      "an": 284,
      "Ġof": 285,
      "Ġb": 286,
      "ed": 287,
      "ou": 288,
      "ar": 289,
      "ion": 290,
      "Ġin": 291,
      "Ġm": 292,
      "Ġand": 293,
      "Ġto": 294,
      "ic": 295,
      "Ġd": 296,
      "le": 297,
      "ro": 298,
      "as": 299,
      "ent": 300,
      "Ġth": 301,
      "ct": 302,
      "Ġe": 303,
      "Ġh": 304,
      "Ġre": 305,
      "st": 306,
      "Ġn": 307,
      "om": 308,
      "ve": 309,
      "Ġl": 310,
      "il": 311,
      "et": 312,
      "im": 313,
      "Ġis": 314,
      "ly": 315,
      "ation": 316,
      "ol": 317,
      "ra": 318,
      "ĠT": 319,
      "Ġg": 320,
      "se": 321,
      "ce": 322,
      "id": 323,
      "ow": 324,
      "ut": 325,
      "ig": 326,
      "Ġbe": 327,
      "ot": 328,
      "Ġu": 329,
      "Ġfor": 330,
      "ĠA": 331,
      "ch": 332,
      "ur": 333,
      "Ġy": 334,
      "ĠS": 335,
      "Ġst": 336,
      "ul": 337,
      "Ġon": 338,
      "ver": 339,
      "Ġ1": 340,
      "Ġthat": 341,
      "ĠI": 342,
      "âĢ": 343,
      "ĠC": 344,
      "am": 345,
      "ir": 346,
      "Ġcon": 347,
      "ay": 348,
      "ĠĠ": 349,
      "ith": 350,
      "Ġ(": 351,
      "if": 352,
      "el": 353,
      "Ġpro": 354,
      "um": 355,
      "Ġyou": 356,
      "Ġan": 357,
      "Ġas": 358,
      "her": 359,
      "ad": 360,
      "Ġwith": 361,
      "qu": 362,
      "ers": 363,
      "Ġor": 364,
      "Ġit": 365,
      "ist": 366,
      "ate": 367,
      "Ġwh": 368,
      "ge": 369,
      "Ġare": 370,
      "Ġex": 371,
      "Ġal": 372,
      "ĠM": 373,
      "Ġ2": 374,
      "ĠP": 375,
      "od": 376,
      "ter": 377,
      "te": 378,
      "ĠThe": 379,
      "end": 380,
      "ab": 381,
      "Ġv": 382,
      "ri": 383,
      "th": 384,
      "res": 385,
      "Ġwe": 386,
      "Ġde": 387,
      "ment": 388,
      "us": 389,
      "Ġcom": 390,
      "ess": 391,
      "ity": 392,
      "est": 393,
      "pe": 394,
      "ore": 395,
      "ies": 396,
      "ĠB": 397,
      "ive": 398,
      "igh": 399,
      "iv": 400,
      "ill": 401,
      "os": 402,
      "Ġhe": 403,
      "ke": 404,
      "Ġsu": 405,
      "ld": 406,
      "and": 407,
      "Ġby": 408,
      "ac": 409,
      "ĠW": 410,
      "op": 411,
      "ant": 412,
      "ction": 413,
      "ĠH": 414,
      "pl": 415,
      "nt": 416,
      "ain": 417,
      "ĠF": 418,
      "rom": 419,
      "Ġse": 420,
      "ĠE": 421,
      "art": 422,
      "Ġcan": 423,
      "Ġat": 424,
      "un": 425,
      "Ġ=": 426,
      "00": 427,
      "Ġr": 428,
      "ĠD": 429,
      "em": 430,
      "ĠR": 431,
      "Ġch": 432,
      "Ġne": 433,
      "ial": 434,
      "oc": 435,
      "Ġha": 436,
      "ud": 437,
      "ight": 438,
      "Ġfrom": 439,
      "ure": 440,
      "ort": 441,
      "pp": 442,
      "Ġle": 443,
      "Âł": 444,
      "'s": 445,
      "ical": 446,
      "all": 447,
      "ĠN": 448,
      "Ġthis": 449,
      "ĠL": 450,
      "--": 451,
      "Ġsh": 452,
      "ine": 453,
      "fe": 454,
      "og": 455,
      "Ġnot": 456,
      "pt": 457,
      "rou": 458,
      "Ġwas": 459,
      "Ġhave": 460,
      "ĠG": 461,
      "ould": 462,
      "ag": 463,
      "Ġab": 464,
      "per": 465,
      "Ġus": 466,
      "xt": 467,
      "|>": 468,
      "<|": 469,
      "red": 470,
      "out": 471,
      "Ġwor": 472,
      "our": 473,
      "ations": 474,
      "##": 475,
      "gh": 476,
      "ome": 477,
      "ust": 478,
      "Ġen": 479,
      "ich": 480,
      "iz": 481,
      "ple": 482,
      "Ġ\"": 483,
      "The": 484,
      "ide": 485,
      "Ġim": 486,
      "ard": 487,
      "ult": 488,
      "ions": 489,
      "ther": 490,
      "Ġk": 491,
      "Ġpl": 492,
      "ĠO": 493,
      "age": 494,
      "Ġ3": 495,
      "Ġwhe": 496,
      "ost": 497,
      "act": 498,
      "Ġ\\": 499,
      "ber": 500,
      "Ġyour": 501,
      "ans": 502,
      "ĠâĢ": 503,
      "ated": 504,
      "Ġtheir": 505,
      "âĢĻ": 506,
      "Ġad": 507,
      "ous": 508,
      "ind": 509,
      "ĠĠĠĠ": 510,
      "of": 511,
      "Ġres": 512,
      "ak": 513,
      "du": 514,
      "Ġint": 515,
      "orm": 516,
      "ell": 517,
      "Ġme": 518,
      "ue": 519,
      "Ġ$": 520,
      "ĠTh": 521,
      "Ġall": 522,
      "ast": 523,
      "Ġ-": 524,
      "ance": 525,
      "ass": 526,
      "ĠU": 527,
      "Ġwhich": 528,
      "Ġwill": 529,
      "Ġinc": 530,
      "ĠIn": 531,
      "are": 532,
      "cc": 533,
      "ie": 534,
      "able": 535,
      "ach": 536,
      "ĠJ": 537,
      "ap": 538,
      "Ġthey": 539,
      "ary": 540,
      "ence": 541,
      "ble": 542,
      "ong": 543,
      "vel": 544,
      "Ġdo": 545,
      "ip": 546,
      "Ġcont": 547,
      "ents": 548,
      "Ġdis": 549,
      "text": 550,
      "ks": 551,
      "Ġmore": 552,
      "Ġun": 553,
      "int": 554,
      "Ġper": 555,
      "ign": 556,
      "Ġcl": 557,
      "ual": 558,
      "Ġhas": 559,
      "ep": 560,
      "Ġone": 561,
      "ear": 562,
      "ru": 563,
      "Ġnum": 564,
      "ime": 565,
      "Ġother": 566,
      "Ġj": 567,
      "ang": 568,
      "ry": 569,
      "ress": 570,
      "Ġar": 571,
      "ces": 572,
      "ne": 573,
      "Ġcomp": 574,
      "Ġ4": 575,
      "ame": 576,
      "Ġbut": 577,
      "ater": 578,
      "ition": 579,
      "Ġman": 580,
      "Ġqu": 581,
      "ose": 582,
      "..": 583,
      "ice": 584,
      "ite": 585,
      "ase": 586,
      "Ġabout": 587,
      "Ġte": 588,
      "ood": 589,
      "so": 590,
      "ake": 591,
      "ors": 592,
      "Ġli": 593,
      "Ġ+": 594,
      "Ġout": 595,
      "low": 596,
      "ace": 597,
      "Ġev": 598,
      "av": 599,
      "one": 600,
      "Ġsp": 601,
      "ia": 602,
      "endof": 603,
      "endoftext": 604,
      "Ġ0": 605,
      "ren": 606,
      "form": 607,
      "ens": 608,
      "ount": 609,
      "Ġ5": 610,
      "ph": 611,
      "ok": 612,
      "ci": 613,
      ").": 614,
      "reat": 615,
      "nder": 616,
      "ory": 617,
      "ile": 618,
      "Ġpart": 619,
      "Ġimp": 620,
      "very": 621,
      "ound": 622,
      "now": 623,
      "ack": 624,
      "ric": 625,
      "Ġso": 626,
      "ire": 627,
      "Ġinto": 628,
      "Ġalso": 629,
      "ild": 630,
      "ree": 631,
      "ord": 632,
      "au": 633,
      "Ġif": 634,
      "ub": 635,
      "Ġup": 636,
      "Ġtw": 637,
      "ĠSt": 638,
      "Ġthese": 639,
      "Ġspe": 640,
      "Ġwere": 641,
      "Ġro": 642,
      "Ġthem": 643,
      "ÂłÂł": 644,
      "Ġhow": 645,
      "ath": 646,
      "Ġ19": 647,
      "ect": 648,
      "Ġcomm": 649,
      "les": 650,
      "Ġstud": 651,
      "Ġbet": 652,
      "ms": 653,
      "Ġsy": 654,
      "Ġpo": 655,
      "Ġx": 656,
      "ays": 657,
      "Ġthan": 658,
      "ond": 659,
      "----": 660,
      "Ġtr": 661,
      "Ġsome": 662,
      "Ġits": 663,
      "we": 664,
      "Ġlike": 665,
      "Ġwho": 666,
      "rent": 667,
      "ĠThis": 668,
      "Ġfe": 669,
      "ates": 670,
      "Ġthere": 671,
      "Ġdif": 672,
      "Ġpre": 673,
      "ari": 674,
      "rough": 675,
      "rac": 676,
      "ff": 677,
      "Ġhis": 678,
      "ĠCh": 679,
      "ings": 680,
      "Ġbec": 681,
      "ail": 682,
      "Ġind": 683,
      "ities": 684,
      "ĠK": 685,
      "Ġtime": 686,
      "vers": 687,
      "Ġwhen": 688,
      "Ġunder": 689,
      "ific": 690,
      "ating": 691,
      "olog": 692,
      "ish": 693,
      "ons": 694,
      "Ġem": 695,
      "ĠV": 696,
      "Ġtwo": 697,
      "Ġpe": 698,
      "ll": 699,
      "Ġ20": 700,
      "Ġwould": 701,
      "Ġcons": 702,
      "ative": 703,
      "irst": 704,
      "ove": 705,
      "Ġcol": 706,
      "Ġmay": 707,
      "ally": 708,
      "Ġrel": 709,
      "ĠY": 710,
      "Ġequ": 711,
      "ics": 712,
      "Ġknow": 713,
      "Ġour": 714,
      "Ġuse": 715,
      "ject": 716,
      "Ġsuch": 717,
      "__": 718,
      "âĢĿ": 719,
      "Ġrec": 720,
      "Ġra": 721,
      "ough": 722,
      "Ġval": 723,
      "**": 724,
      "Ġover": 725,
      "Ġgo": 726,
      "Ġinter": 727,
      "rit": 728,
      "ĠIt": 729,
      "ys": 730,
      "Ġwork": 731,
      "erv": 732,
      "fect": 733,
      "ments": 734,
      "),": 735,
      "ook": 736,
      "Ġtra": 737,
      "Ġag": 738,
      "Ġ6": 739,
      "unction": 740,
      "Ġnumber": 741,
      "lud": 742,
      "Ġany": 743,
      "Ġdes": 744,
      "Ġapp": 745,
      "Ġwhat": 746,
      "stem": 747,
      "Ġacc": 748,
      "Ġyear": 749,
      "Ġnew": 750,
      "rib": 751,
      "Ġform": 752,
      "row": 753,
      "lect": 754,
      "``": 755,
      "ution": 756,
      "Ġneed": 757,
      "Ġam": 758,
      "Ġdiffe": 759,
      "Ġpos": 760,
      "Ġhel": 761,
      "ning": 762,
      "ility": 763,
      "ular": 764,
      "ween": 765,
      "ft": 766,
      "ib": 767,
      "ople": 768,
      "Ġob": 769,
      "Ġbeen": 770,
      "ĠĠĠ": 771,
      "Ġsc": 772,
      "ian": 773,
      "Ġpr": 774,
      "Ġthrough": 775,
      "Ġrep": 776,
      "Ġco": 777,
      "Ġhelp": 778,
      "als": 779,
      "In": 780,
      "Ġbetween": 781,
      "Ġsa": 782,
      "eth": 783,
      "Ġexam": 784,
      "ause": 785,
      "Ġsol": 786,
      "ful": 787,
      "ise": 788,
      "Ġfirst": 789,
      "Ġgen": 790,
      "ov": 791,
      "ns": 792,
      "ĠâĢľ": 793,
      "cess": 794,
      "Ġhad": 795,
      "Ġspec": 796,
      "Ġprov": 797,
      "Ġadd": 798,
      "erm": 799,
      "ures": 800,
      "hat": 801,
      "ange": 802,
      "oth": 803,
      "ob": 804,
      "round": 805,
      "ational": 806,
      "}{": 807,
      "ink": 808,
      "uring": 809,
      "Ġwhere": 810,
      "Ġdec": 811,
      "Ġeach": 812,
      "Ġact": 813,
      ".<|": 814,
      "Ġno": 815,
      "Ġinclud": 816,
      "Ġfunction": 817,
      "ract": 818,
      "Ġpeople": 819,
      "ced": 820,
      "Ġass": 821,
      "Ġcould": 822,
      "its": 823,
      "Ġonly": 824,
      "ict": 825,
      "Ġsub": 826,
      "pect": 827,
      "Ġbl": 828,
      "Ġthen": 829,
      "ata": 830,
      "Ġreg": 831,
      "ark": 832,
      "Ġprodu": 833,
      "Ġvari": 834,
      "Ġph": 835,
      "ible": 836,
      "Ġfol": 837,
      "hed": 838,
      "ffect": 839,
      "Ġinv": 840,
      "Ġused": 841,
      "ram": 842,
      "Ġac": 843,
      "10": 844,
      "Ġrem": 845,
      "velop": 846,
      "Ġ7": 847,
      "Ġmany": 848,
      "Ġexp": 849,
      "ower": 850,
      "ues": 851,
      "Ġoff": 852,
      "Ġsim": 853,
      "fore": 854,
      "$$": 855,
      "mer": 856,
      "ec": 857,
      "tain": 858,
      "hes": 859,
      "Ġ10": 860,
      "fter": 861,
      "sel": 862,
      "Ġset": 863,
      "Ġsystem": 864,
      "Ġget": 865,
      "Ġfind": 866,
      "Ġmost": 867,
      "Ġmod": 868,
      "ased": 869,
      "Ġpoint": 870,
      "ĠUn": 871,
      "Ġdi": 872,
      "Ġdist": 873,
      "Ġ8": 874,
      "ĠHe": 875,
      "âĢ¢": 876,
      "ĠâĢĵ": 877,
      "Ġap": 878,
      "Ġinte": 879,
      "Ġsur": 880,
      "Ġexpl": 881,
      "ew": 882,
      "'t": 883,
      "alth": 884,
      "Ġ200": 885,
      "Ġtrans": 886,
      "ick": 887,
      "Ġfollow": 888,
      "own": 889,
      "Ġgra": 890,
      "frac": 891,
      "bers": 892,
      "Ġher": 893,
      "Ġsm": 894,
      "ten": 895,
      "get": 896,
      "cept": 897,
      "Ġusing": 898,
      "Ġinst": 899,
      "ctions": 900,
      "###": 901,
      "stand": 902,
      "ool": 903,
      "Ġdifferent": 904,
      "iss": 905,
      "ss": 906,
      "Ġfl": 907,
      "uc": 908,
      "Ġ9": 909,
      "hen": 910,
      "Ġdevelop": 911,
      "Ġdisc": 912,
      "Ġmake": 913,
      "ential": 914,
      "Ġexper": 915,
      "Ġcall": 916,
      "resent": 917,
      "ef": 918,
      "ize": 919,
      "tern": 920,
      "imes": 921,
      "Ġgiv": 922,
      "chn": 923,
      "wn": 924,
      "ting": 925,
      "Ġpers": 926,
      "ious": 927,
      "Ġdet": 928,
      "Ġjust": 929,
      "Ġshould": 930,
      "erg": 931,
      "Ġmat": 932,
      "Ġmy": 933,
      "ied": 934,
      "old": 935,
      "Ġsign": 936,
      "ife": 937,
      "arch": 938,
      "Ġfact": 939,
      "cul": 940,
      "Ġ{": 941,
      "aking": 942,
      "ines": 943,
      "ily": 944,
      "ubl": 945,
      "Ġdata": 946,
      "urn": 947,
      "ĠPro": 948,
      "ng": 949,
      "ident": 950,
      "Ġsec": 951,
      "iew": 952,
      "ts": 953,
      "Ġproble": 954,
      "ĠIf": 955,
      "eng": 956,
      "ural": 957,
      "Ġevery": 958,
      "Ġcre": 959,
      "ever": 960,
      "Ġsee": 961,
      "ists": 962,
      "aw": 963,
      "Ġeven": 964,
      "12": 965,
      "Ġcomple": 966,
      "ps": 967,
      "ĠWe": 968,
      "other": 969,
      ".\"": 970,
      "cy": 971,
      "Th": 972,
      "Ġstr": 973,
      "ĠHow": 974,
      "ax": 975,
      "Ġresult": 976,
      "ĠFor": 977,
      "Ġ`": 978,
      "formation": 979,
      "Ġbu": 980,
      "Ġcor": 981,
      "Ġlear": 982,
      "ty": 983,
      "uch": 984,
      "the": 985,
      "ade": 986,
      "Ġchild": 987,
      "Ġke": 988,
      "pport": 989,
      "oy": 990,
      "oci": 991,
      "start": 992,
      "Ġwell": 993,
      "Ġsame": 994,
      "ving": 995,
      "Ġyears": 996,
      "Ġcur": 997,
      "ont": 998,
      "Ġgener": 999,
      "hip": 1000,
      "gan": 1001,
      "Ġway": 1002,
      "Ġâ": 1003,
      "Ġquest": 1004,
      "Ġty": 1005,
      "Ġ[": 1006,
      "Ġ.": 1007,
      "ness": 1008,
      "Ġworld": 1009,
      "Ġ18": 1010,
      "000": 1011,
      "ically": 1012,
      "ology": 1013,
      "Ġhigh": 1014,
      "Ġright": 1015,
      "Ġboth": 1016,
      "ature": 1017,
      "ward": 1018,
      "Ġdef": 1019,
      "ited": 1020,
      "Ġins": 1021,
      "Ġcent": 1022,
      "Ġexample": 1023,
      "Ġed": 1024,
      "ĠRe": 1025,
      "ivid": 1026,
      "Ġbecause": 1027,
      "Ġpol": 1028,
      "Ġconc": 1029,
      "plic": 1030,
      "Ġappro": 1031,
      "ices": 1032,
      "Ġchar": 1033,
      "Ġatt": 1034,
      "ars": 1035,
      "Ġwater": 1036,
      "Ġ&": 1037,
      "hem": 1038,
      "Ġdoes": 1039,
      "ism": 1040,
      "Ġimport": 1041,
      "Ġlong": 1042,
      "ants": 1043,
      "Ġwhile": 1044,
      "Ġthose": 1045,
      "Ġshe": 1046,
      "Ġtechn": 1047,
      "Ġafter": 1048,
      "Ġrese": 1049,
      "ider": 1050,
      "Ġlar": 1051,
      "20": 1052,
      "\":": 1053,
      "Ġmin": 1054,
      "Ġunderstand": 1055,
      "Ġrequ": 1056,
      "ĠAl": 1057,
      "ins": 1058,
      "Ġincre": 1059,
      "Ġear": 1060,
      "ĠCom": 1061,
      "alcul": 1062,
      "Ġent": 1063,
      "ient": 1064,
      "--------": 1065,
      "ually": 1066,
      "Ġprog": 1067,
      "Ġ'": 1068,
      "Ġcommun": 1069,
      "vent": 1070,
      "Ġfound": 1071,
      "{\\": 1072,
      "ute": 1073,
      "Ġcount": 1074,
      "ives": 1075,
      "meric": 1076,
      "Ġloc": 1077,
      "com": 1078,
      "Ġinf": 1079,
      "ds": 1080,
      "ork": 1081,
      "11": 1082,
      "Ġeffect": 1083,
      "iqu": 1084,
      "Ġpartic": 1085,
      ",\"": 1086,
      "ruct": 1087,
      "ex": 1088,
      "ined": 1089,
      "chool": 1090,
      "Ġmed": 1091,
      "ince": 1092,
      "led": 1093,
      "Ġart": 1094,
      "gg": 1095,
      "}}": 1096,
      "ized": 1097,
      "Ġpat": 1098,
      "ĠEx": 1099,
      "ved": 1100,
      "ases": 1101,
      "Ġhum": 1102,
      "ages": 1103,
      "Ġref": 1104,
      "Ġext": 1105,
      "Ġend": 1106,
      "irc": 1107,
      "ands": 1108,
      "Ġsaid": 1109,
      "iel": 1110,
      "Ġshow": 1111,
      "inal": 1112,
      "right": 1113,
      "Ġduring": 1114,
      "cial": 1115,
      "Ġread": 1116,
      "Ġhealth": 1117,
      "ĠAs": 1118,
      "ather": 1119,
      "Ġvalue": 1120,
      "ability": 1121,
      "Ġgrou": 1122,
      "ides": 1123,
      "Ġinformation": 1124,
      "Ġgiven": 1125,
      "Ġdep": 1126,
      "ix": 1127,
      "Ġprocess": 1128,
      "ves": 1129,
      "19": 1130,
      "ĠAmeric": 1131,
      "Ġmight": 1132,
      "Ġback": 1133,
      "Ġline": 1134,
      "Ġlead": 1135,
      "arm": 1136,
      "Ġposs": 1137,
      "Ġstudents": 1138,
      "Ġhist": 1139,
      "Ġfam": 1140,
      "Ġsmall": 1141,
      "der": 1142,
      "dition": 1143,
      "ĠĠĠĠĠĠĠ": 1144,
      "Ġreal": 1145,
      "Ġret": 1146,
      "rest": 1147,
      "Ġbeing": 1148,
      "imate": 1149,
      "Ġpower": 1150,
      "Ġca": 1151,
      "Ġconst": 1152,
      "Ġcar": 1153,
      "Ġmuch": 1154,
      "Ġown": 1155,
      "Ġ$$": 1156,
      "Ġstart": 1157,
      "Ġbo": 1158,
      "self": 1159,
      "cent": 1160,
      "ional": 1161,
      "ck": 1162,
      "con": 1163,
      "Ġperson": 1164,
      "Ġtest": 1165,
      "Ġvery": 1166,
      "ĠQ": 1167,
      "omet": 1168,
      "Ġthree": 1169,
      "iron": 1170,
      "Ġmult": 1171,
      "air": 1172,
      "tle": 1173,
      "Ġmon": 1174,
      "...": 1175,
      "ify": 1176,
      "Ġsk": 1177,
      "ted": 1178,
      "put": 1179,
      "ĠAn": 1180,
      "und": 1181,
      "Ġless": 1182,
      "ven": 1183,
      "itive": 1184,
      "Ġclass": 1185,
      "Ġlife": 1186,
      "ety": 1187,
      "ethod": 1188,
      "Ġbefore": 1189,
      "read": 1190,
      "Ġnumbers": 1191,
      "ivers": 1192,
      "Ġpubl": 1193,
      "uss": 1194,
      "ÂłÂłÂłÂł": 1195,
      "Ġtri": 1196,
      "Ġele": 1197,
      "Ġgrow": 1198,
      "Ġstate": 1199,
      "pr": 1200,
      "ger": 1201,
      "akes": 1202,
      "Ġsci": 1203,
      "Ġmust": 1204,
      "Ġaut": 1205,
      "ave": 1206,
      "Ġdire": 1207,
      "Ġpar": 1208,
      "Ġplan": 1209,
      "ĠYou": 1210,
      "ator": 1211,
      "ock": 1212,
      "Ġ12": 1213,
      "ĠThey": 1214,
      "Ġmain": 1215,
      "be": 1216,
      "Ġtake": 1217,
      "cl": 1218,
      "Ġcalled": 1219,
      "Ġcontin": 1220,
      "____": 1221,
      "Ġmade": 1222,
      "Ġlet": 1223,
      "Ġresp": 1224,
      "rence": 1225,
      "li": 1226,
      "Ġpop": 1227,
      "wer": 1228,
      "_{": 1229,
      "Ġwithin": 1230,
      "Ġdown": 1231,
      "any": 1232,
      "Ġthink": 1233,
      "over": 1234,
      "ĠWhat": 1235,
      "Ġvis": 1236,
      "Ġstudy": 1237,
      "ale": 1238,
      "Ġnow": 1239,
      "gin": 1240,
      "Ġmem": 1241,
      "ffic": 1242,
      "Ġlevel": 1243,
      "ets": 1244,
      "Ġexperi": 1245,
      "Ġlook": 1246,
      "This": 1247,
      "ross": 1248,
      "ergy": 1249,
      "ption": 1250,
      "Ġfollowing": 1251,
      "itions": 1252,
      "ĠCon": 1253,
      "Ġmean": 1254,
      "Ġagain": 1255,
      "Ġallow": 1256,
      "Ġaround": 1257,
      "Ġconf": 1258,
      "ode": 1259,
      "Ġest": 1260,
      "Ġser": 1261,
      "Ġgu": 1262,
      "line": 1263,
      "ences": 1264,
      "Ġlit": 1265,
      "viron": 1266,
      "Ġ|": 1267,
      "de": 1268,
      "13": 1269,
      "ency": 1270,
      "Ġgl": 1271,
      "ples": 1272,
      "Ġoften": 1273,
      "Ġmeas": 1274,
      "^{": 1275,
      "ared": 1276,
      "Ġpract": 1277,
      ".,": 1278,
      "ality": 1279,
      "Ġav": 1280,
      "Ġimportant": 1281,
      "day": 1282,
      "ody": 1283,
      "Ġday": 1284,
      "io": 1285,
      "ĠAr": 1286,
      "ired": 1287,
      "up": 1288,
      "Ġdesign": 1289,
      "âĢĶ": 1290,
      "ral": 1291,
      "Ġmethod": 1292,
      "val": 1293,
      "Ġz": 1294,
      "Ġwant": 1295,
      "Ġcalcul": 1296,
      "Ġident": 1297,
      "Ġeng": 1298,
      "Ġdid": 1299,
      "ern": 1300,
      "ĠBut": 1301,
      "Ġanal": 1302,
      "Ġthough": 1303,
      "Ġve": 1304,
      "Ġ15": 1305,
      "Ġplay": 1306,
      "Ġpot": 1307,
      "Ġbel": 1308,
      "raph": 1309,
      "ull": 1310,
      "Ġsum": 1311,
      "Ġans": 1312,
      "Ġarea": 1313,
      "to": 1314,
      "acter": 1315,
      "Ġide": 1316,
      "Ġgood": 1317,
      "Ġserv": 1318,
      "Ġsecond": 1319,
      "ining": 1320,
      "ization": 1321,
      "ron": 1322,
      "ividual": 1323,
      "Ġsupport": 1324,
      "Ġwrit": 1325,
      "Ġcare": 1326,
      "ĠNew": 1327,
      "Ġmet": 1328,
      "Ġocc": 1329,
      "Ġhim": 1330,
      "Ġschool": 1331,
      "ah": 1332,
      "Ġproblem": 1333,
      "Ġadv": 1334,
      "els": 1335,
      "Ġi": 1336,
      "15": 1337,
      "Ġcle": 1338,
      "ctor": 1339,
      "ĠThese": 1340,
      "ense": 1341,
      "land": 1342,
      "ring": 1343,
      "rodu": 1344,
      "Ġop": 1345,
      "ision": 1346,
      "ĠWh": 1347,
      "br": 1348,
      "ains": 1349,
      "here": 1350,
      "Ġsl": 1351,
      "ering": 1352,
      "Ġ/": 1353,
      "Ġcommon": 1354,
      "Ġgre": 1355,
      "}$": 1356,
      "Ġproduct": 1357,
      "ocial": 1358,
      "vironment": 1359,
      "ital": 1360,
      "Ġchildren": 1361,
      "Ġindividual": 1362,
      "rol": 1363,
      "Ġconsider": 1364,
      "Ġstand": 1365,
      "Ġinterest": 1366,
      "par": 1367,
      "ished": 1368,
      "Ġincluding": 1369,
      "Ġanother": 1370,
      "14": 1371,
      "Ġinvol": 1372,
      "ĠAd": 1373,
      "Ġorgan": 1374,
      "Ġredu": 1375,
      "ĠBy": 1376,
      "Ġcult": 1377,
      "atic": 1378,
      "ĠLe": 1379,
      "Ġhuman": 1380,
      "ner": 1381,
      "Ġbeh": 1382,
      "}\\": 1383,
      "Ġchange": 1384,
      "Ġcirc": 1385,
      "ots": 1386,
      "port": 1387,
      "Ġlist": 1388,
      "ulation": 1389,
      "Ġobject": 1390,
      "ield": 1391,
      "Ġbuild": 1392,
      "ivity": 1393,
      "Ġoper": 1394,
      "omen": 1395,
      "Ġfood": 1396,
      "ray": 1397,
      "Ġpass": 1398,
      "Ġsignific": 1399,
      "ources": 1400,
      "Ġresearch": 1401,
      "ĠInd": 1402,
      "ertain": 1403,
      "ĠâĪ": 1404,
      "ĠAnd": 1405,
      "ank": 1406,
      "Ġprote": 1407,
      "ateg": 1408,
      "oun": 1409,
      "Ġcreate": 1410,
      "Ġter": 1411,
      "Ġlearn": 1412,
      "Ġconne": 1413,
      "Ġ$\\": 1414,
      "ination": 1415,
      "oh": 1416,
      "hers": 1417,
      "Ġcour": 1418,
      "18": 1419,
      "Ġprof": 1420,
      "Ġcreat": 1421,
      "ote": 1422,
      "ilar": 1423,
      "Ġelect": 1424,
      "tem": 1425,
      "ret": 1426,
      "istant": 1427,
      "olution": 1428,
      "ĠThere": 1429,
      "Ġchang": 1430,
      "Ġwithout": 1431,
      "16": 1432,
      "Ġdem": 1433,
      "ories": 1434,
      "way": 1435,
      "Ġhand": 1436,
      "less": 1437,
      "Ġquestion": 1438,
      "oss": 1439,
      "ression": 1440,
      "Ġenergy": 1441,
      "Ġdon": 1442,
      "Ġproper": 1443,
      "ash": 1444,
      "aterial": 1445,
      "iversity": 1446,
      "Ġtop": 1447,
      "Ġlarge": 1448,
      "ĠCl": 1449,
      "Ġgreat": 1450,
      "ier": 1451,
      "ior": 1452,
      "Ġknown": 1453,
      "ĠSh": 1454,
      "Ġeas": 1455,
      "Ġgover": 1456,
      "bs": 1457,
      "left": 1458,
      "Ġris": 1459,
      "ert": 1460,
      "Ġsqu": 1461,
      "Ġmeans": 1462,
      "Ġcase": 1463,
      "Ġ**": 1464,
      "Ġstill": 1465,
      "ĠIs": 1466,
      "Ġplace": 1467,
      "Ġtyp": 1468,
      "cing": 1469,
      "Ġpercent": 1470,
      "por": 1471,
      "ample": 1472,
      "view": 1473,
      "Ġpres": 1474,
      "Ġhere": 1475,
      "Ġ16": 1476,
      "play": 1477,
      "Ġsym": 1478,
      "ends": 1479,
      "elf": 1480,
      "Ġtreat": 1481,
      "ason": 1482,
      "):": 1483,
      "Ġcell": 1484,
      "Ġdesc": 1485,
      "ccess": 1486,
      "Ġpur": 1487,
      "angu": 1488,
      "ways": 1489,
      "ique": 1490,
      "Ġdra": 1491,
      "Ġimpro": 1492,
      "Ġcomplex": 1493,
      "ength": 1494,
      "agn": 1495,
      "Ġpossible": 1496,
      "Ġiss": 1497,
      "Ġpresent": 1498,
      "Ġel": 1499,
      "verse": 1500,
      "ouse": 1501,
      "Ġcurrent": 1502,
      "Ġdel": 1503,
      "ead": 1504,
      "Ġtem": 1505,
      "alk": 1506,
      "ury": 1507,
      "Ġgovern": 1508,
      "Ġpotential": 1509,
      "pos": 1510,
      "ĠTo": 1511,
      "Ġprom": 1512,
      "50": 1513,
      "iod": 1514,
      "yle": 1515,
      "Ġperform": 1516,
      "Ġorder": 1517,
      "ĠX": 1518,
      "||": 1519,
      "Ġgroup": 1520,
      "ton": 1521,
      "ration": 1522,
      "Ġreport": 1523,
      "Ġche": 1524,
      "Ġrepresent": 1525,
      "Ġvalues": 1526,
      "Ġdeterm": 1527,
      "Ġnon": 1528,
      "ument": 1529,
      "Ġpublic": 1530,
      "Ġlight": 1531,
      "Ġvol": 1532,
      "aj": 1533,
      "utions": 1534,
      "Ġorig": 1535,
      "Ġmulti": 1536,
      "Ġcap": 1537,
      "Ġmark": 1538,
      "ug": 1539,
      "Ġsay": 1540,
      "Ġlim": 1541,
      "Ġprob": 1542,
      "Ġbas": 1543,
      "ĠSe": 1544,
      "ĠDe": 1545,
      "Ġrelations": 1546,
      "ĠSo": 1547,
      "Ġinteg": 1548,
      "))": 1549,
      "ards": 1550,
      "ĠHowever": 1551,
      "Ġang": 1552,
      "Ġsit": 1553,
      "Ġprovide": 1554,
      "Ġ*": 1555,
      "ĠĠĠĠĠĠĠĠ": 1556,
      "Ġsom": 1557,
      "Ġeduc": 1558,
      "Ġtoget": 1559,
      "Ġtogether": 1560,
      "ables": 1561,
      "ocus": 1562,
      "Ġbased": 1563,
      "ently": 1564,
      "Ġphys": 1565,
      "oid": 1566,
      "iness": 1567,
      "Ġtimes": 1568,
      "Ġproject": 1569,
      "Ġbetter": 1570,
      "oring": 1571,
      "Ġmaterial": 1572,
      "ling": 1573,
      "If": 1574,
      "ries": 1575,
      "Ġ199": 1576,
      "orn": 1577,
      "Ġfin": 1578,
      "ething": 1579,
      "Ġdev": 1580,
      "Ġappe": 1581,
      "We": 1582,
      "Ġmove": 1583,
      "Ġenvironment": 1584,
      "Ġchall": 1585,
      "ances": 1586,
      "Ġequation": 1587,
      "Ġsocial": 1588,
      "math": 1589,
      "Ġlast": 1590,
      "Ġbre": 1591,
      "Ġvarious": 1592,
      "user": 1593,
      "Ġlaw": 1594,
      "17": 1595,
      "Ġstep": 1596,
      "ified": 1597,
      "Ġanswer": 1598,
      "Ġsever": 1599,
      "Ġess": 1600,
      "imal": 1601,
      "ope": 1602,
      "oint": 1603,
      "Ġcorre": 1604,
      "atural": 1605,
      "ording": 1606,
      ".âĢĿ": 1607,
      "ĠRes": 1608,
      "me": 1609,
      "Ġhy": 1610,
      "conom": 1611,
      "Ġsignificant": 1612,
      "Ġdiv": 1613,
      "Ġsince": 1614,
      "Ġbody": 1615,
      "Ġ<": 1616,
      "ĠOn": 1617,
      "Ġbelie": 1618,
      "Ġ17": 1619,
      "ĠWhen": 1620,
      "Ġrest": 1621,
      "Ġcost": 1622,
      "Ġinclude": 1623,
      "```": 1624,
      "urther": 1625,
      "Ġparticular": 1626,
      "Ġfeel": 1627,
      "Ġ:": 1628,
      "Ġcho": 1629,
      "'re": 1630,
      "for": 1631,
      "Ġprogram": 1632,
      "Ġrad": 1633,
      "Ġ)": 1634,
      "Ġtoo": 1635,
      "Ġsomething": 1636,
      "lu": 1637,
      "cer": 1638,
      "Ġamong": 1639,
      "Ġtext": 1640,
      "Ġhapp": 1641,
      "Ġfac": 1642,
      "To": 1643,
      "ills": 1644,
      "Ġ14": 1645,
      "arent": 1646,
      "man": 1647,
      "Ġlo": 1648,
      "Ġpri": 1649,
      "ental": 1650,
      "ention": 1651,
      "Ġcharacter": 1652,
      "az": 1653,
      "Ġothers": 1654,
      "ape": 1655,
      "Ġfour": 1656,
      "Ġtre": 1657,
      "Ġben": 1658,
      "Ġimm": 1659,
      "Ġseveral": 1660,
      "ĠAmerican": 1661,
      "Ġopen": 1662,
      "Ġdise": 1663,
      "Ġmar": 1664,
      "Ġhistory": 1665,
      "ĠEng": 1666,
      "ological": 1667,
      "Ġspecific": 1668,
      "abor": 1669,
      "Ġspace": 1670,
      "Ġabove": 1671,
      "Ġpost": 1672,
      "angle": 1673,
      "ided": 1674,
      "ran": 1675,
      "As": 1676,
      "Ġbecome": 1677,
      "Ġmeasure": 1678,
      "Ġmil": 1679,
      "tal": 1680,
      "Ġcomb": 1681,
      "Ġer": 1682,
      "assistant": 1683,
      "rop": 1684,
      "25": 1685,
      "Ġequal": 1686,
      "Ġproblems": 1687,
      "work": 1688,
      "ource": 1689,
      "Ġlangu": 1690,
      "Ġfocus": 1691,
      "Ġdiscuss": 1692,
      "oms": 1693,
      "Ġfre": 1694,
      "ients": 1695,
      "esc": 1696,
      "Ġstruct": 1697,
      "What": 1698,
      "ians": 1699,
      "Ġkeep": 1700,
      "Ġdevelopment": 1701,
      "lish": 1702,
      "idence": 1703,
      "ograph": 1704,
      "Ġmaking": 1705,
      "tt": 1706,
      "Ġ13": 1707,
      "Ġtry": 1708,
      "ats": 1709,
      "Ġaddition": 1710,
      "outh": 1711,
      "Ġcomput": 1712,
      "Ġbest": 1713,
      "sy": 1714,
      "Ġleft": 1715,
      "Ġside": 1716,
      "ĠPh": 1717,
      "Ġrelationship": 1718,
      "ume": 1719,
      "ĠÂł": 1720,
      "Ġens": 1721,
      "Ġkey": 1722,
      "It": 1723,
      "Ġunderstanding": 1724,
      "ived": 1725,
      "Ġfew": 1726,
      "Ġhome": 1727,
      "Ġ11": 1728,
      "Ġreturn": 1729,
      "Ġunt": 1730,
      "Ġobs": 1731,
      "ĠPl": 1732,
      "Ġagainst": 1733,
      "Ġbi": 1734,
      "Ġleg": 1735,
      "ggest": 1736,
      "ĠUniversity": 1737,
      "ww": 1738,
      "ively": 1739,
      "Ġcaus": 1740,
      "Ġ,": 1741,
      "face": 1742,
      "Ġseem": 1743,
      "apter": 1744,
      "Ġoccur": 1745,
      "vert": 1746,
      "yth": 1747,
      "Ġtool": 1748,
      "Ġtype": 1749,
      "Ġnear": 1750,
      "Ġfamily": 1751,
      "ames": 1752,
      "Ġself": 1753,
      "Ġpoints": 1754,
      "Ġdig": 1755,
      "orth": 1756,
      "Ġold": 1757,
      "hor": 1758,
      "Ġcrit": 1759,
      "Ġfri": 1760,
      "\",": 1761,
      "ole": 1762,
      "Ġalong": 1763,
      "Ġthings": 1764,
      "Ġbus": 1765,
      "Ġenc": 1766,
      "Ġmill": 1767,
      "ium": 1768,
      "Ġperiod": 1769,
      "//": 1770,
      "Ġcertain": 1771,
      "Ġlearning": 1772,
      "rite": 1773,
      "ogn": 1774,
      "Ġconcept": 1775,
      "eral": 1776,
      "Ġaccess": 1777,
      "etic": 1778,
      "Ġ30": 1779,
      "ĠCol": 1780,
      "Ġsuccess": 1781,
      "Ġview": 1782,
      "âĢĵ": 1783,
      "Ġnext": 1784,
      "Ġopt": 1785,
      "Ġscient": 1786,
      "cted": 1787,
      "rt": 1788,
      "eter": 1789,
      "ploy": 1790,
      "Ġquestions": 1791,
      "arc": 1792,
      "Ġsuggest": 1793,
      "Ġamount": 1794,
      "ditions": 1795,
      "ysis": 1796,
      "ither": 1797,
      "ek": 1798,
      "Ġdue": 1799,
      "amp": 1800,
      "not": 1801,
      "Ġfore": 1802,
      "ission": 1803,
      "30": 1804,
      "uro": 1805,
      "Ġcontrol": 1806,
      "ula": 1807,
      "Ġask": 1808,
      "ĠCan": 1809,
      ");": 1810,
      "How": 1811,
      "ĠZ": 1812,
      "Ġalways": 1813,
      "oks": 1814,
      "ids": 1815,
      "Ġbra": 1816,
      "ĠQu": 1817,
      "Ġmus": 1818,
      "Ġair": 1819,
      "Ġavail": 1820,
      "hemat": 1821,
      "AT": 1822,
      "dis": 1823,
      "Ġtotal": 1824,
      "ĠEn": 1825,
      "Ġlocal": 1826,
      "Ġeconom": 1827,
      "Ġsays": 1828,
      "Ġ100": 1829,
      "ights": 1830,
      "verage": 1831,
      "ilities": 1832,
      "istic": 1833,
      "Ġhour": 1834,
      "ĠSp": 1835,
      "Ġmov": 1836,
      "ox": 1837,
      "aps": 1838,
      "Ġdistrib": 1839,
      "ware": 1840,
      "Ġrun": 1841,
      "by": 1842,
      "Ġimpact": 1843,
      "use": 1844,
      "Ġwhy": 1845,
      "âĪ": 1846,
      "Ġsimilar": 1847,
      "Ġareas": 1848,
      "Ġlow": 1849,
      "usion": 1850,
      "Ġhig": 1851,
      "ending": 1852,
      "idd": 1853,
      "aces": 1854,
      "Ġinvest": 1855,
      "Ġworks": 1856,
      "Ġcome": 1857,
      "Ġpositive": 1858,
      "osed": 1859,
      "Ġlength": 1860,
      "Ġearly": 1861,
      "ĠBe": 1862,
      "Ġacross": 1863,
      "Ġdiff": 1864,
      "fficient": 1865,
      "Ġspecial": 1866,
      "St": 1867,
      "Ġsystems": 1868,
      "stit": 1869,
      "Ġname": 1870,
      "ĠOr": 1871,
      "For": 1872,
      "Ġways": 1873,
      "Ġwomen": 1874,
      "Ġland": 1875,
      "iving": 1876,
      "rist": 1877,
      "app": 1878,
      "Ġwar": 1879,
      "Ġpress": 1880,
      "aring": 1881,
      "sc": 1882,
      "Ġmonth": 1883,
      "ird": 1884,
      "Ex": 1885,
      "asing": 1886,
      "vious": 1887,
      "Ġant": 1888,
      "uture": 1889,
      "ajor": 1890,
      "Ġterm": 1891,
      "ane": 1892,
      "izing": 1893,
      "Ġet": 1894,
      "Ġnatural": 1895,
      "ĠThat": 1896,
      "Ġsing": 1897,
      "ators": 1898,
      "ember": 1899,
      "Ġlog": 1900,
      "ered": 1901,
      "Ġresults": 1902,
      "erc": 1903,
      "mit": 1904,
      "Ġfar": 1905,
      "Ġbro": 1906,
      "Ġhead": 1907,
      "Ġexist": 1908,
      "ĠTe": 1909,
      "Ġuntil": 1910,
      "ler": 1911,
      "ĠAt": 1912,
      "Ġnecess": 1913,
      "He": 1914,
      "rix": 1915,
      "Ġstory": 1916,
      "Ġinit": 1917,
      "ges": 1918,
      "Ġfree": 1919,
      ",âĢĿ": 1920,
      "Ġneg": 1921,
      "Ġgovernment": 1922,
      "An": 1923,
      "Ġremain": 1924,
      "Ġgr": 1925,
      "ĠUnited": 1926,
      "agement": 1927,
      "min": 1928,
      "Ġ#": 1929,
      "str": 1930,
      "Ġmot": 1931,
      "Ġgraph": 1932,
      "Ġmodel": 1933,
      "Ġtoward": 1934,
      "Ġrece": 1935,
      "Ġflow": 1936,
      "Ġassoci": 1937,
      "Ġsoci": 1938,
      "Ġdays": 1939,
      "ended": 1940,
      "Ġapplic": 1941,
      "ĠÃ": 1942,
      "ised": 1943,
      "bra": 1944,
      "Ġclear": 1945,
      "You": 1946,
      "Ġessential": 1947,
      "osp": 1948,
      "igure": 1949,
      "Ġbenef": 1950,
      "ror": 1951,
      "Ġnorm": 1952,
      "icle": 1953,
      "ĠIm": 1954,
      "Ġput": 1955,
      "Ġcontain": 1956,
      "Ġcourse": 1957,
      "ma": 1958,
      "Ġwords": 1959,
      "iting": 1960,
      "Ġsent": 1961,
      "Ġterms": 1962,
      "Ġavailable": 1963,
      "aper": 1964,
      "Ġgive": 1965,
      "Ġmass": 1966,
      "ately": 1967,
      "Ġrele": 1968,
      "Ġcontrib": 1969,
      "Ġable": 1970,
      "ĠOne": 1971,
      "60": 1972,
      "aster": 1973,
      "inary": 1974,
      "lying": 1975,
      "Ġdeg": 1976,
      "Ġcommunity": 1977,
      "ored": 1978,
      "ik": 1979,
      "Ġcolle": 1980,
      "ta": 1981,
      "qrt": 1982,
      "ledge": 1983,
      "Ġrisk": 1984,
      "Ġstat": 1985,
      "Ġmen": 1986,
      "Ġdirect": 1987,
      "utes": 1988,
      "ably": 1989,
      "Ġrange": 1990,
      "Ġdescrib": 1991,
      "Ġsolution": 1992,
      "Ġcr": 1993,
      "Ġ25": 1994,
      "Ġaffect": 1995,
      "apt": 1996,
      "Ġbook": 1997,
      "Ġchalleng": 1998,
      "Ġcontinu": 1999,
      "Ġwhether": 2000,
      "ule": 2001,
      "omm": 2002,
      "Ġleast": 2003,
      "Ġpain": 2004,
      "ER": 2005,
      "Ġlanguage": 2006,
      "There": 2007,
      "ference": 2008,
      "Ġshort": 2009,
      "Ġexperience": 2010,
      "lo": 2011,
      "atch": 2012,
      "Ġbehav": 2013,
      "ĠÂ": 2014,
      "nal": 2015,
      "Ġsupp": 2016,
      "Ġrate": 2017,
      "Ġrole": 2018,
      "Ġactiv": 2019,
      "Ġsw": 2020,
      "rap": 2021,
      "Ġsquare": 2022,
      "aging": 2023,
      "Ġfactors": 2024,
      "ales": 2025,
      "----------------": 2026,
      "alf": 2027,
      "Ġunique": 2028,
      "Ġlittle": 2029,
      "40": 2030,
      "though": 2031,
      "orld": 2032,
      "pecial": 2033,
      "pro": 2034,
      "Ġtrue": 2035,
      "**:": 2036,
      "Ġarg": 2037,
      "Ġsimple": 2038,
      "Ġfield": 2039,
      "ĠStates": 2040,
      "Ġstrong": 2041,
      "ĠÎ": 2042,
      "Ġmajor": 2043,
      "Ġgeneral": 2044,
      "inc": 2045,
      "ĠâĢĶ": 2046,
      "orts": 2047,
      "Ġill": 2048,
      "Ġage": 2049,
      "Ġdri": 2050,
      "Ġge": 2051,
      "Ġdisease": 2052,
      "Ġspecies": 2053,
      "Ġstrateg": 2054,
      "Ġbelow": 2055,
      "Ġinflu": 2056,
      "Ġfuture": 2057,
      "Ġblood": 2058,
      "Ġhard": 2059,
      "Ġsize": 2060,
      "Ġchanges": 2061,
      "Ġforce": 2062,
      "Ġupon": 2063,
      "Ġapproach": 2064,
      "Ġpast": 2065,
      "Ġbegin": 2066,
      "22": 2067,
      "ĠSy": 2068,
      "omes": 2069,
      "Ġrespons": 2070,
      "Ġworking": 2071,
      "ication": 2072,
      "Ġfil": 2073,
      "Ġrespect": 2074,
      "Ġfunctions": 2075,
      "Ġyoung": 2076,
      "enge": 2077,
      "Ġaccount": 2078,
      "Ġexpect": 2079,
      "Ġteam": 2080,
      "oot": 2081,
      "Ġgoing": 2082,
      "icult": 2083,
      "ĠAll": 2084,
      "Ġpred": 2085,
      "....": 2086,
      "ĠCent": 2087,
      "itud": 2088,
      "Ġhaving": 2089,
      "oura": 2090,
      "arr": 2091,
      "Ġfra": 2092,
      "Ġconditions": 2093,
      "style": 2094,
      "Ġtemper": 2095,
      "thing": 2096,
      "ina": 2097,
      "ĠWith": 2098,
      "Ġpolit": 2099,
      "selves": 2100,
      "Ġcorrect": 2101,
      "ibility": 2102,
      "Ġtoday": 2103,
      "Ġsure": 2104,
      "Now": 2105,
      "Ġfurther": 2106,
      "Ġpopulation": 2107,
      "Ġcy": 2108,
      "ĠEar": 2109,
      "rams": 2110,
      "Ġprofess": 2111,
      "Ġestab": 2112,
      "oph": 2113,
      "aken": 2114,
      "Ġkind": 2115,
      "Ġlater": 2116,
      "ones": 2117,
      "Ġcomplete": 2118,
      "Ġbusiness": 2119,
      "ires": 2120,
      "iation": 2121,
      "gen": 2122,
      "ĠNational": 2123,
      "ometimes": 2124,
      "ero": 2125,
      "chie": 2126,
      "ĠTr": 2127,
      "Ġturn": 2128,
      "ann": 2129,
      "Ġnet": 2130,
      "ĠComm": 2131,
      "Ġgrowth": 2132,
      "iction": 2133,
      "200": 2134,
      "ĠGod": 2135,
      "99": 2136,
      "Ġresources": 2137,
      "Ġimprove": 2138,
      "Ġsurface": 2139,
      "ream": 2140,
      "side": 2141,
      "Ġcountry": 2142,
      "new": 2143,
      "'ll": 2144,
      "Ġcause": 2145,
      "pportun": 2146,
      "aut": 2147,
      "cos": 2148,
      "Ġ>": 2149,
      "sqrt": 2150,
      "imum": 2151,
      "Ġlevels": 2152,
      "Ġsense": 2153,
      "âĢľ": 2154,
      "ounds": 2155,
      "Ġaddress": 2156,
      "Ġexplore": 2157,
      "Ġprevent": 2158,
      "Ġunit": 2159,
      "rict": 2160,
      "atures": 2161,
      "24": 2162,
      "Ġgroups": 2163,
      "Ġmakes": 2164,
      "Ġelements": 2165,
      "oney": 2166,
      "Ġfund": 2167,
      "Ġheart": 2168,
      "une": 2169,
      "Ġ}": 2170,
      "ĠChrist": 2171,
      "Ġdetail": 2172,
      "Ġï": 2173,
      "ĠLet": 2174,
      "Ġstandard": 2175,
      "Ġeff": 2176,
      "Ġindust": 2177,
      "epend": 2178,
      "yn": 2179,
      "Ġtechnology": 2180,
      "rences": 2181,
      "Ġindic": 2182,
      "Ġes": 2183,
      "Ġobserv": 2184,
      "plement": 2185,
      "80": 2186,
      "Ġemploy": 2187,
      "ush": 2188,
      "agine": 2189,
      "Ġanalysis": 2190,
      "cient": 2191,
      "ters": 2192,
      "Ġexpress": 2193,
      "Ġvers": 2194,
      "Ġmaintain": 2195,
      "Ġ50": 2196,
      "à¤": 2197,
      "Ġevent": 2198,
      "display": 2199,
      "Ġhistor": 2200,
      "Ch": 2201,
      "Ġsingle": 2202,
      "Ġfull": 2203,
      "ription": 2204,
      "ney": 2205,
      "Ġfrequ": 2206,
      "Ġaway": 2207,
      "iding": 2208,
      "Ġincrease": 2209,
      "ival": 2210,
      "urope": 2211,
      "Ġeither": 2212,
      "atives": 2213,
      "co": 2214,
      "bol": 2215,
      "Ġneeds": 2216,
      "ĠAf": 2217,
      "Ġplant": 2218,
      "ged": 2219,
      "Al": 2220,
      "Ġopportun": 2221,
      "ĠSome": 2222,
      "ython": 2223,
      "anced": 2224,
      "atory": 2225,
      "23": 2226,
      "Ġrequire": 2227,
      "Ġhold": 2228,
      "reen": 2229,
      "Ġauthor": 2230,
      "Ġaverage": 2231,
      "Ġhigher": 2232,
      "Ġcode": 2233,
      "Ġenough": 2234,
      "Ġvir": 2235,
      "ties": 2236,
      "Ġprim": 2237,
      "fer": 2238,
      "sequ": 2239,
      "ches": 2240,
      "aves": 2241,
      "Ġseries": 2242,
      "Ġmind": 2243,
      "Ġcoll": 2244,
      "So": 2245,
      "ĠSc": 2246,
      "Ġclose": 2247,
      "Ġpolic": 2248,
      "Ġrecord": 2249,
      "Ġpie": 2250,
      "Ġachie": 2251,
      "Ġtypes": 2252,
      "obal": 2253,
      "Ġrather": 2254,
      "alle": 2255,
      "Ġtell": 2256,
      "Ġground": 2257,
      "Ġnever": 2258,
      "displaystyle": 2259,
      "Ġtradition": 2260,
      "Se": 2261,
      "Ġ$$\\": 2262,
      "Ġeducation": 2263,
      "Ġbig": 2264,
      "ask": 2265,
      "Ġever": 2266,
      "Ġreason": 2267,
      "Ġknowledge": 2268,
      "ĠMay": 2269,
      "aries": 2270,
      "oft": 2271,
      "Ġformula": 2272,
      "ĠNe": 2273,
      "ruction": 2274,
      "Ġword": 2275,
      "Ġ24": 2276,
      "ON": 2277,
      "Ġresearc": 2278,
      "Ġey": 2279,
      "Wh": 2280,
      "Ġmeet": 2281,
      "Ġcells": 2282,
      "II": 2283,
      ".)": 2284,
      "Ġreally": 2285,
      "ery": 2286,
      "Ġrequired": 2287,
      "Ġdom": 2288,
      "________": 2289,
      "Ġparent": 2290,
      "Ġtravel": 2291,
      "ĠJoh": 2292,
      "Ġlikely": 2293,
      "Ġskills": 2294,
      "Ġteac": 2295,
      "ĠMed": 2296,
      "illed": 2297,
      "Ġscience": 2298,
      "aim": 2299,
      "Ġdifficult": 2300,
      "}$$": 2301,
      "rack": 2302,
      "ĠEurope": 2303,
      "Ġsitu": 2304,
      "istics": 2305,
      "wh": 2306,
      "ĠâĢĺ": 2307,
      "Ġtreatment": 2308,
      "equ": 2309,
      "Ġsequ": 2310,
      "Ġhowever": 2311,
      "ising": 2312,
      "Ġdraw": 2313,
      "imals": 2314,
      "ĠShe": 2315,
      "Ġindividuals": 2316,
      "Ġjour": 2317,
      "imately": 2318,
      "tep": 2319,
      "Ġinput": 2320,
      "Ġissues": 2321,
      "istance": 2322,
      "Ġthought": 2323,
      "Ġcheck": 2324,
      "$.": 2325,
      "'ve": 2326,
      "Ġcity": 2327,
      "ili": 2328,
      "Ġsat": 2329,
      "Ġ--": 2330,
      "ĠStud": 2331,
      "Ġneeded": 2332,
      "uments": 2333,
      "Ġusually": 2334,
      "Ġcases": 2335,
      "Ġsens": 2336,
      "ready": 2337,
      "Ġidea": 2338,
      "Ġdistance": 2339,
      "pecially": 2340,
      "Ġabs": 2341,
      "cle": 2342,
      "Ġrecogn": 2343,
      "Ġbr": 2344,
      "let": 2345,
      "Ġwhole": 2346,
      "ĠGe": 2347,
      "Ġwind": 2348,
      "ification": 2349,
      "edi": 2350,
      "iques": 2351,
      "asc": 2352,
      "rm": 2353,
      "Ġspeed": 2354,
      "ST": 2355,
      "Ġgreater": 2356,
      "ison": 2357,
      "Ġnature": 2358,
      "Ġsubject": 2359,
      "Ġpersonal": 2360,
      "Ġmax": 2361,
      "ithm": 2362,
      "Ġhours": 2363,
      "://": 2364,
      "Ġlower": 2365,
      "ĠâĪĴ": 2366,
      "name": 2367,
      "Ġfall": 2368,
      "ott": 2369,
      "overed": 2370,
      "Ġpath": 2371,
      "Ġintrodu": 2372,
      "Ġoriginal": 2373,
      "dd": 2374,
      "Ġdr": 2375,
      "lease": 2376,
      "ĠEm": 2377,
      "33": 2378,
      "Ġmembers": 2379,
      "Ġopp": 2380,
      "Ġexact": 2381,
      "Ġmillion": 2382,
      "urs": 2383,
      "aching": 2384,
      "ustom": 2385,
      "Ġmathemat": 2386,
      "ĠAss": 2387,
      "Ġpractice": 2388,
      "ript": 2389,
      "Ġonce": 2390,
      "âĢ¦": 2391,
      "acy": 2392,
      "Ġfive": 2393,
      "ĠMe": 2394,
      "Ġexplain": 2395,
      "Ġdifference": 2396,
      "Ġprint": 2397,
      "?<|": 2398,
      "Ġdone": 2399,
      "Ġevents": 2400,
      "When": 2401,
      "Ġaccording": 2402,
      "ises": 2403,
      ")=": 2404,
      "sp": 2405,
      "Ġfactor": 2406,
      "Ġder": 2407,
      "fully": 2408,
      "Ġthroughout": 2409,
      "Ġalready": 2410,
      "Ġmethods": 2411,
      "ĠUS": 2412,
      "ĠPr": 2413,
      "ites": 2414,
      "earch": 2415,
      "iven": 2416,
      "ene": 2417,
      "Ġshare": 2418,
      "ips": 2419,
      "most": 2420,
      "Ġsolve": 2421,
      "augh": 2422,
      "ðĿ": 2423,
      "Ġpoly": 2424,
      "Ġactivities": 2425,
      "Ġdistribution": 2426,
      "Ġhalf": 2427,
      "Ġcentury": 2428,
      "Ġce": 2429,
      "ĠMar": 2430,
      "Ġdeep": 2431,
      "Ġbuilding": 2432,
      "Ġmodern": 2433,
      "Ġprobability": 2434,
      "Ġweight": 2435,
      "Ġparticip": 2436,
      "70": 2437,
      "Ġcannot": 2438,
      "ilt": 2439,
      "Ġcollect": 2440,
      "umber": 2441,
      "ung": 2442,
      "Ġmultiple": 2443,
      "plied": 2444,
      "ĠAm": 2445,
      "ze": 2446,
      "Ġmeaning": 2447,
      "sh": 2448,
      "inci": 2449,
      "icro": 2450,
      "Ġseen": 2451,
      "Ġonline": 2452,
      "Ġstra": 2453,
      "ĠĊ": 2454,
      "Ġphysical": 2455,
      "Ġphot": 2456,
      "ĠAfric": 2457,
      "Ġflu": 2458,
      "Ġrelig": 2459,
      "ym": 2460,
      "Ġcompon": 2461,
      "enn": 2462,
      "Ġdeath": 2463,
      "Ġprovides": 2464,
      "lex": 2465,
      "Ġbecame": 2466,
      "Ġnecessary": 2467,
      "raft": 2468,
      "Ġespecially": 2469,
      "lt": 2470,
      "Ġassociated": 2471,
      "Ġimplement": 2472,
      "Ġsomeone": 2473,
      "Ġpay": 2474,
      "ply": 2475,
      "arget": 2476,
      "45": 2477,
      "Ġemot": 2478,
      "Ġposition": 2479,
      "lam": 2480,
      "Ġshows": 2481,
      "Ġnumer": 2482,
      "Ġstructure": 2483,
      "ĠBl": 2484,
      "Ġfeet": 2485,
      "Ġrul": 2486,
      "Ġengine": 2487,
      "Ġitself": 2488,
      "Ġregard": 2489,
      "$,": 2490,
      "oman": 2491,
      "Ġden": 2492,
      "Ġlay": 2493,
      "IN": 2494,
      "Ġpaper": 2495,
      "ius": 2496,
      "Ġinstead": 2497,
      "Ġliter": 2498,
      "ming": 2499,
      "Ġentire": 2500,
      "Ġcut": 2501,
      "Ġprevious": 2502,
      "ĠEarth": 2503,
      "Ġparts": 2504,
      "Ġnegative": 2505,
      "Ġensure": 2506,
      "acks": 2507,
      "itude": 2508,
      "Ġmom": 2509,
      "Ġrev": 2510,
      "(\\": 2511,
      "Ġdoc": 2512,
      "Ġann": 2513,
      "Ġweek": 2514,
      "Ġmarket": 2515,
      "Ġconstant": 2516,
      "Ġbir": 2517,
      "urns": 2518,
      "Re": 2519,
      "roll": 2520,
      "Ġred": 2521,
      "imens": 2522,
      "Ġidentify": 2523,
      "Ġaspect": 2524,
      "come": 2525,
      "Ġevidence": 2526,
      "Ġanaly": 2527,
      "Ġdefin": 2528,
      "Ġmaterials": 2529,
      "ĠMan": 2530,
      "Ġ40": 2531,
      "ĠWar": 2532,
      "af": 2533,
      "ĠWorld": 2534,
      "Ġangle": 2535,
      "estion": 2536,
      "Ġconsum": 2537,
      "Ġstudies": 2538,
      "bo": 2539,
      "Ġthemselves": 2540,
      "Ġbal": 2541,
      "}{\\": 2542,
      "icial": 2543,
      "Ġeffects": 2544,
      "oon": 2545,
      "AR": 2546,
      "Ġbase": 2547,
      "Ġcountries": 2548,
      "Ġdetermine": 2549,
      "alu": 2550,
      "Ġresearchers": 2551,
      "action": 2552,
      "Ġinitial": 2553,
      "Ġhouse": 2554,
      "75": 2555,
      "Ġcomes": 2556,
      "atter": 2557,
      "Ġchem": 2558,
      "Let": 2559,
      "like": 2560,
      "iver": 2561,
      "Ġpressure": 2562,
      "sych": 2563,
      "ront": 2564,
      "know": 2565,
      "Ġexc": 2566,
      "Ġmath": 2567,
      "Ġyet": 2568,
      "Ġtaking": 2569,
      "inally": 2570,
      "Ġtaken": 2571,
      "ÂłÂłÂł": 2572,
      "ores": 2573,
      "inter": 2574,
      "AS": 2575,
      "Ġdam": 2576,
      "gebra": 2577,
      "Ġstates": 2578,
      "Ġcancer": 2579,
      "21": 2580,
      "Ġrat": 2581,
      "place": 2582,
      "hern": 2583,
      "Ġactually": 2584,
      "chan": 2585,
      "onse": 2586,
      "28": 2587,
      "lation": 2588,
      "iddle": 2589,
      "aced": 2590,
      "iment": 2591,
      "Ġtowards": 2592,
      "Ġlines": 2593,
      "Ġliving": 2594,
      "Ġplants": 2595,
      "my": 2596,
      "Ġver": 2597,
      "rad": 2598,
      "ĠUs": 2599,
      "ipp": 2600,
      "Ġsite": 2601,
      "Ġbreak": 2602,
      "ĠSim": 2603,
      "Ġdivid": 2604,
      "rug": 2605,
      "Ġsuper": 2606,
      "light": 2607,
      "ĠSu": 2608,
      "Ġmagn": 2609,
      "Ġrelated": 2610,
      "],": 2611,
      "()": 2612,
      "Ġcame": 2613,
      "Ġquick": 2614,
      "Ġstudent": 2615,
      "reg": 2616,
      "ĠÂłĠÂł": 2617,
      "cies": 2618,
      "Ġwritten": 2619,
      "Ġcondu": 2620,
      "Ġprotect": 2621,
      "isc": 2622,
      "pi": 2623,
      "ĠBrit": 2624,
      "Ġfriends": 2625,
      "Ġsepar": 2626,
      "ĠCons": 2627,
      "Ġcondition": 2628,
      "On": 2629,
      "Ġlab": 2630,
      "ĠPer": 2631,
      "mber": 2632,
      "One": 2633,
      "Ġbar": 2634,
      "Ġtable": 2635,
      "Ġchallenges": 2636,
      "ĠNo": 2637,
      "Ġwrite": 2638,
      "Ġmoney": 2639,
      "100": 2640,
      "ĠFe": 2641,
      "where": 2642,
      "ened": 2643,
      "oes": 2644,
      "Ġbehavior": 2645,
      "orks": 2646,
      "Ġcontext": 2647,
      "Ġbrain": 2648,
      "ulations": 2649,
      "oll": 2650,
      "Ġemb": 2651,
      "Ġport": 2652,
      "ivil": 2653,
      "Ġtools": 2654,
      "ĠGen": 2655,
      "Ġsides": 2656,
      "Ġjob": 2657,
      "Ġincreasing": 2658,
      "aches": 2659,
      "Ġproduction": 2660,
      "Ġtechniques": 2661,
      "Ġvariable": 2662,
      "Ġfail": 2663,
      "Ġcreated": 2664,
      "eters": 2665,
      "artment": 2666,
      "Ġquant": 2667,
      "ging": 2668,
      "Ġsometimes": 2669,
      "Ġprovided": 2670,
      "fort": 2671,
      "cience": 2672,
      "Ġ...": 2673,
      "ems": 2674,
      "ĠState": 2675,
      "Pro": 2676,
      "Ġmess": 2677,
      "Ġtheory": 2678,
      "Ġallows": 2679,
      "27": 2680,
      "sin": 2681,
      "Ġnormal": 2682,
      "Ġproducts": 2683,
      "Ġgain": 2684,
      "ĠSol": 2685,
      "But": 2686,
      "yl": 2687,
      "Ġindepend": 2688,
      "Ġtalk": 2689,
      "ĠĠĠĠĠĠĠĠĠĠĠ": 2690,
      "elling": 2691,
      "Ġsource": 2692,
      "ils": 2693,
      "Ġhelps": 2694,
      "Ġlive": 2695,
      "####": 2696,
      "Ġactivity": 2697,
      "36": 2698,
      "uck": 2699,
      "Ġincreased": 2700,
      "By": 2701,
      "'m": 2702,
      "ening": 2703,
      "ttp": 2704,
      ")^": 2705,
      "ĠMat": 2706,
      "Ġloss": 2707,
      "Ġcru": 2708,
      "Ġshown": 2709,
      "Ġdemon": 2710,
      "Ġintern": 2711,
      "cd": 2712,
      "ĠThen": 2713,
      "Ġtakes": 2714,
      "ublic": 2715,
      "ĠGerm": 2716,
      "uted": 2717,
      "\".": 2718,
      "mat": 2719,
      "ĠAmerica": 2720,
      "aling": 2721,
      "erve": 2722,
      "Ġste": 2723,
      "Ġelement": 2724,
      "Ġselect": 2725,
      "ĠAfter": 2726,
      "iol": 2727,
      "Ġglobal": 2728,
      "29": 2729,
      "Ġwriting": 2730,
      "Ġcompany": 2731,
      "gor": 2732,
      "Ġideas": 2733,
      "==": 2734,
      "ĠIntern": 2735,
      "reng": 2736,
      "Ġcomputer": 2737,
      "Ġcop": 2738,
      "urity": 2739,
      "ĠPre": 2740,
      "ctors": 2741,
      "ĠHist": 2742,
      "Ġexperiences": 2743,
      "ĠCar": 2744,
      "Ġpatients": 2745,
      "Ġquality": 2746,
      "ordin": 2747,
      "Ġlove": 2748,
      "Ġanimals": 2749,
      "vey": 2750,
      "uel": 2751,
      "go": 2752,
      "pose": 2753,
      "Ġroot": 2754,
      "Ġur": 2755,
      "ĠFind": 2756,
      "ndom": 2757,
      "Ġla": 2758,
      "lim": 2759,
      "Ġdest": 2760,
      "nov": 2761,
      "Ġcritical": 2762,
      "Ġcreating": 2763,
      "Ġencoura": 2764,
      "26": 2765,
      "Ġcalculate": 2766,
      "Ġcustom": 2767,
      "ĠNorth": 2768,
      "Ġeffective": 2769,
      "Con": 2770,
      "Ġsimply": 2771,
      "Ġmatrix": 2772,
      "Ġball": 2773,
      "pre": 2774,
      "Ġcal": 2775,
      "mon": 2776,
      "Ġpolitical": 2777,
      "Ġaction": 2778,
      "Ġtarget": 2779,
      "ĠCal": 2780,
      "Ġevalu": 2781,
      "Ġmor": 2782,
      "Ġsal": 2783,
      "ĠÏ": 2784,
      "ii": 2785,
      "Ġmanagement": 2786,
      "Ġfeed": 2787,
      "35": 2788,
      "Ġdoing": 2789,
      "Ġconsist": 2790,
      "ober": 2791,
      "ĠEnglish": 2792,
      "ĠCont": 2793,
      "orpor": 2794,
      "Ġequations": 2795,
      "ĠMath": 2796,
      "hib": 2797,
      "=\\": 2798,
      "Ġinstance": 2799,
      "Â°": 2800,
      "ĠHere": 2801,
      "Ġaltern": 2802,
      "anks": 2803,
      "Ġregion": 2804,
      "omial": 2805,
      "Ġcapt": 2806,
      "isions": 2807,
      "org": 2808,
      "Ġuses": 2809,
      "Ġreduce": 2810,
      "ĠDep": 2811,
      "Ġperformance": 2812,
      "$\\": 2813,
      "Ġrelative": 2814,
      "Ġmatter": 2815,
      "Ġtriangle": 2816,
      "Ġvariables": 2817,
      "Ġbegan": 2818,
      "Ġtemperature": 2819,
      "plies": 2820,
      "Ġri": 2821,
      "Ġgas": 2822,
      "ĠHealth": 2823,
      "ĠWhile": 2824,
      "Ġenvironmental": 2825,
      "Ġcolor": 2826,
      "Ġlinear": 2827,
      "Ġdou": 2828,
      "Ġlives": 2829,
      "idered": 2830,
      "ster": 2831,
      "Ġsix": 2832,
      "ump": 2833,
      "Ġpopular": 2834,
      "Ġrights": 2835,
      "ae": 2836,
      "ĠJohn": 2837,
      "Ġcontent": 2838,
      "Ġdeveloped": 2839,
      "pri": 2840,
      "ĠJew": 2841,
      "Ġwide": 2842,
      "Ġemerg": 2843,
      "Ġprinci": 2844,
      "ops": 2845,
      "Ġclimate": 2846,
      ")(": 2847,
      "ĠYork": 2848,
      "Ġconvers": 2849,
      "Ġtook": 2850,
      "ls": 2851,
      "Ġdoesn": 2852,
      "#####": 2853,
      "Ġelse": 2854,
      "Ġpriv": 2855,
      "bon": 2856,
      "avor": 2857,
      "Ġhor": 2858,
      "aving": 2859,
      "Ġexerc": 2860,
      "Ġcontinue": 2861,
      "ift": 2862,
      "set": 2863,
      "Ġarticle": 2864,
      "rig": 2865,
      "ĠRep": 2866,
      "urch": 2867,
      "Ġnational": 2868,
      "Ġzero": 2869,
      "Ġmonths": 2870,
      "type": 2871,
      "ĠDr": 2872,
      "Ġ21": 2873,
      "aged": 2874,
      "Ġgame": 2875,
      "Ġregular": 2876,
      "ĠAct": 2877,
      "Ġmedical": 2878,
      "Ġpict": 2879,
      "Ġut": 2880,
      "Ġcos": 2881,
      "Ġcommunities": 2882,
      "terns": 2883,
      "ners": 2884,
      "ĠCo": 2885,
      "Ġclaim": 2886,
      "ĠGu": 2887,
      "ched": 2888,
      "Ġappear": 2889,
      "OR": 2890,
      "Ġfigure": 2891,
      "ÂłÂłÂłÂłÂłÂłÂłÂł": 2892,
      "Ġresponse": 2893,
      "Ġavoid": 2894,
      "ES": 2895,
      "Ġoffer": 2896,
      "Ġprec": 2897,
      "Ġeconomic": 2898,
      "},": 2899,
      "ĠMore": 2900,
      "Ġ60": 2901,
      "aily": 2902,
      "Ġblack": 2903,
      "Ġrecomm": 2904,
      "Ġago": 2905,
      "Ġconsidered": 2906,
      "Ġsteps": 2907,
      "Ġreview": 2908,
      "Ġproduce": 2909,
      "Ġservices": 2910,
      "ike": 2911,
      "Ġapprox": 2912,
      "Ġlot": 2913,
      "ĠFr": 2914,
      "Ġvide": 2915,
      "Ġvalu": 2916,
      "resp": 2917,
      "Ġdirection": 2918,
      "Ġwhite": 2919,
      "unt": 2920,
      "Ġsafe": 2921,
      "Ġmach": 2922,
      "Ġarch": 2923,
      "Ġshap": 2924,
      "Ġcircle": 2925,
      "wo": 2926,
      "hood": 2927,
      "Ġobtain": 2928,
      "Here": 2929,
      "ley": 2930,
      "acc": 2931,
      "Ġsociety": 2932,
      "Ġmusic": 2933,
      "Ġstreng": 2934,
      "arily": 2935,
      "Ġbound": 2936,
      "ĠNow": 2937,
      "Ġsample": 2938,
      "Ġlink": 2939,
      "Ġbasic": 2940,
      "itor": 2941,
      "Ġ\\\\": 2942,
      "hold": 2943,
      "Ġ198": 2944,
      "90": 2945,
      "Ġsoft": 2946,
      "fact": 2947,
      "Ġparam": 2948,
      "Ġgot": 2949,
      "Ġtraditional": 2950,
      "ured": 2951,
      "Ġgreen": 2952,
      "Ġsymbol": 2953,
      "Ġprime": 2954,
      "Ġthird": 2955,
      "Ġbring": 2956,
      "ĠChall": 2957,
      "wise": 2958,
      "Ġpatterns": 2959,
      "Ã©": 2960,
      "AN": 2961,
      "lection": 2962,
      "Ġexpression": 2963,
      "inct": 2964,
      "Ġimage": 2965,
      "Ġsolutions": 2966,
      "Ġcompet": 2967,
      ")$": 2968,
      "hing": 2969,
      "Ġeveryone": 2970,
      "ĠLevel": 2971,
      "Ġlarger": 2972,
      "Ġreflect": 2973,
      "Ġpair": 2974,
      "Ġadj": 2975,
      "Ġparticularly": 2976,
      "Ġ\\$": 2977,
      "{\"": 2978,
      "Ġpage": 2979,
      "Ġstories": 2980,
      "joy": 2981,
      "bb": 2982,
      "Ġeasy": 2983,
      "Ġforms": 2984,
      "Ġcross": 2985,
      "reci": 2986,
      "ĠYour": 2987,
      "based": 2988,
      "Ġsection": 2989,
      "itation": 2990,
      "Ġlooking": 2991,
      "Ġ23": 2992,
      "Ġface": 2993,
      "ĠSouth": 2994,
      "yond": 2995,
      "osing": 2996,
      "Ġrandom": 2997,
      "ĠÃĹ": 2998,
      "Im": 2999,
      "ĠHis": 3000,
      "Ġability": 3001,
      "Ġminutes": 3002,
      "het": 3003,
      "def": 3004,
      "ceed": 3005,
      "ows": 3006,
      "Ġbehind": 3007,
      "Ġcat": 3008,
      "amed": 3009,
      "Ġthing": 3010,
      "Ġshape": 3011,
      "reme": 3012,
      "Ġdemonstr": 3013,
      "ervation": 3014,
      "ault": 3015,
      "Ġgives": 3016,
      "Ġsust": 3017,
      "rees": 3018,
      "Ġculture": 3019,
      "tempt": 3020,
      "ields": 3021,
      "ĠInt": 3022,
      "Ġadult": 3023,
      "gest": 3024,
      "begin": 3025,
      "icles": 3026,
      "Ġprograms": 3027,
      "ĠUse": 3028,
      "Ġcultural": 3029,
      "Ġremember": 3030,
      "pite": 3031,
      "ounter": 3032,
      "Ġsun": 3033,
      "Ġnut": 3034,
      "Ġwhose": 3035,
      "ixed": 3036,
      "Ġdesigned": 3037,
      "Ġheav": 3038,
      "Ġobjects": 3039,
      "med": 3040,
      "astic": 3041,
      "nderstand": 3042,
      "sec": 3043,
      "Ġones": 3044,
      "iet": 3045,
      "Ġ2012": 3046,
      "ried": 3047,
      "rown": 3048,
      "itary": 3049,
      "minist": 3050,
      "more": 3051,
      "ptoms": 3052,
      "ares": 3053,
      "Ġsin": 3054,
      "Ġmechan": 3055,
      "pid": 3056,
      "onal": 3057,
      "Ġfish": 3058,
      "Ġscientists": 3059,
      "Ġharm": 3060,
      "Ġestim": 3061,
      "Ġcm": 3062,
      "Ġoil": 3063,
      "Ġhistorical": 3064,
      "Ġaccept": 3065,
      "Ġheat": 3066,
      "ground": 3067,
      "Ġenh": 3068,
      "Ġdeb": 3069,
      "mb": 3070,
      "Ġrelationships": 3071,
      "stitute": 3072,
      "Ġspir": 3073,
      "Ġsustain": 3074,
      "Ġdrug": 3075,
      "Ġbecomes": 3076,
      "abit": 3077,
      "Ġexactly": 3078,
      "dom": 3079,
      "Ġrecent": 3080,
      "order": 3081,
      "Ġpredict": 3082,
      "48": 3083,
      "ĠKe": 3084,
      "âĪĴ": 3085,
      "Ġsurround": 3086,
      "}^{": 3087,
      "ached": 3088,
      "Ġalmost": 3089,
      "ĠNot": 3090,
      "Ġlands": 3091,
      "Ġreve": 3092,
      "Ġconcer": 3093,
      "Ġwond": 3094,
      "Ġleading": 3095,
      "Ġslow": 3096,
      "pot": 3097,
      "Ġsound": 3098,
      "Ġassess": 3099,
      "Ġsearch": 3100,
      "Ġbit": 3101,
      "lor": 3102,
      "ĠJan": 3103,
      "Ġreading": 3104,
      "orem": 3105,
      "Ġstarted": 3106,
      "haps": 3107,
      "Ġinvolved": 3108,
      "amples": 3109,
      "arrow": 3110,
      "Ġfinal": 3111,
      "Ġachieve": 3112,
      "Ġinside": 3113,
      "Ġax": 3114,
      "rate": 3115,
      "Ġassum": 3116,
      "Ġbenefits": 3117,
      "acters": 3118,
      "Qu": 3119,
      "ender": 3120,
      "Ġlonger": 3121,
      "Ġaud": 3122,
      "Ġissue": 3123,
      "Ġwa": 3124,
      "Ġstru": 3125,
      "Ġoutside": 3126,
      "Ġattention": 3127,
      "inating": 3128,
      "uth": 3129,
      "Ġ22": 3130,
      "Ġoverall": 3131,
      "Ġcenter": 3132,
      "ese": 3133,
      "Ġadded": 3134,
      "Ġpractices": 3135,
      "\":\"": 3136,
      "Ġsources": 3137,
      "ĠPe": 3138,
      "ĠAb": 3139,
      "izations": 3140,
      "align": 3141,
      "ĠPar": 3142,
      "adem": 3143,
      "Ġunits": 3144,
      "Ġfarm": 3145,
      "Ġsequence": 3146,
      "Ġappreci": 3147,
      "Ġpublished": 3148,
      "Ġsex": 3149,
      "Ġlimit": 3150,
      "ĠAg": 3151,
      "Ġ28": 3152,
      "Ġspread": 3153,
      "met": 3154,
      "Ġbelieve": 3155,
      "respond": 3156,
      "Ġ2010": 3157,
      "ĠAre": 3158,
      "Ġexamples": 3159,
      "Ġdefined": 3160,
      "66": 3161,
      "ĠSince": 3162,
      "Ġprogress": 3163,
      "Ġproperties": 3164,
      "pir": 3165,
      "Ġenjoy": 3166,
      "Ġservice": 3167,
      "Ġearth": 3168,
      "ĠComp": 3169,
      "ĠChapter": 3170,
      "apan": 3171,
      "part": 3172,
      "Ġstri": 3173,
      "ĠPart": 3174,
      "Ġtransform": 3175,
      "Ġoutput": 3176,
      "Ġbooks": 3177,
      "www": 3178,
      "igen": 3179,
      "lict": 3180,
      "Ġvisit": 3181,
      "ĠSchool": 3182,
      "Ġvector": 3183,
      "Ġadditional": 3184,
      "escription": 3185,
      "Ġalgor": 3186,
      "ĠChallenge": 3187,
      "Ġbeaut": 3188,
      "Ġbuilt": 3189,
      "44": 3190,
      "Ġcrucial": 3191,
      "ĠRec": 3192,
      "Ġsubst": 3193,
      "ensive": 3194,
      "log": 3195,
      "Ġinvestig": 3196,
      ":**": 3197,
      "ĠResearch": 3198,
      "ĠSec": 3199,
      "osis": 3200,
      "Ġfram": 3201,
      "Ġ27": 3202,
      "rast": 3203,
      "Ġthinking": 3204,
      "Ġdecision": 3205,
      "ĠOct": 3206,
      "porary": 3207,
      "Ġstress": 3208,
      "Ġheight": 3209,
      "Ġmag": 3210,
      "AL": 3211,
      "Step": 3212,
      "Ġstrategies": 3213,
      "Ġled": 3214,
      "ynam": 3215,
      "Ġtree": 3216,
      "Ġsurv": 3217,
      "Ġstay": 3218,
      "Ġcommit": 3219,
      "Ġmedic": 3220,
      "ĠAug": 3221,
      "IV": 3222,
      "Ġyourself": 3223,
      "Ġvisual": 3224,
      "Ġelectric": 3225,
      "EN": 3226,
      "Ġadapt": 3227,
      "Ġproperty": 3228,
      "ĠII": 3229,
      "ancial": 3230,
      "Ġ2011": 3231,
      "Ġ{\"": 3232,
      "Ġprice": 3233,
      "Ġexcept": 3234,
      "ederal": 3235,
      "Ġfeatures": 3236,
      "Ġtraining": 3237,
      "IC": 3238,
      "undred": 3239,
      "Ġbur": 3240,
      "Ġattempt": 3241,
      "Ġmoment": 3242,
      "Ġbroad": 3243,
      "Ġcontains": 3244,
      "Ġsmaller": 3245,
      "Ġparents": 3246,
      "',": 3247,
      "(\"": 3248,
      "Ġaim": 3249,
      "Ġtrying": 3250,
      "Ġearli": 3251,
      "ĠPol": 3252,
      "oved": 3253,
      "Ġefforts": 3254,
      "Ġindustry": 3255,
      "iam": 3256,
      "Ġetc": 3257,
      "Ġbox": 3258,
      "Ġmedia": 3259,
      "estern": 3260,
      "rought": 3261,
      "Ġstop": 3262,
      "Ġgetting": 3263,
      "65": 3264,
      "Ġfire": 3265,
      "Ġcharacters": 3266,
      "Ġperfect": 3267,
      "Ġthous": 3268,
      "oly": 3269,
      "Ġwebs": 3270,
      "Ġincludes": 3271,
      "ensity": 3272,
      "ously": 3273,
      "Ġimportance": 3274,
      "vant": 3275,
      "Ġprior": 3276,
      "Ġopportunities": 3277,
      "print": 3278,
      "Ġinnov": 3279,
      "Ġconcl": 3280,
      "back": 3281,
      "Ġtax": 3282,
      "Ġpsych": 3283,
      "Ġappropri": 3284,
      "ĠFrom": 3285,
      "Ġrule": 3286,
      "Ġinj": 3287,
      "ĠReg": 3288,
      "Ġir": 3289,
      "Ġcamp": 3290,
      "plications": 3291,
      "avig": 3292,
      "Ġvolume": 3293,
      "Ġuser": 3294,
      "Ġprot": 3295,
      "head": 3296,
      "Ġvaluable": 3297,
      "rong": 3298,
      "lear": 3299,
      "Ġaff": 3300,
      "ĠSep": 3301,
      "ĠAust": 3302,
      "Ġfem": 3303,
      "Ġrequires": 3304,
      "Ġmiss": 3305,
      "ai": 3306,
      "78": 3307,
      "Ġrefer": 3308,
      "Ġinform": 3309,
      "Ġsymptoms": 3310,
      "!<|": 3311,
      "Ġschools": 3312,
      "Ġcollabor": 3313,
      "ĠTra": 3314,
      "Ġprep": 3315,
      "Ġcontact": 3316,
      "Ġwild": 3317,
      "Ġpropos": 3318,
      "Ġmicro": 3319,
      "bit": 3320,
      "ension": 3321,
      "Ġbill": 3322,
      "Ġincluded": 3323,
      "king": 3324,
      "izes": 3325,
      "ography": 3326,
      "Ġbeyond": 3327,
      "Ġstatement": 3328,
      "Ġfriend": 3329,
      "vere": 3330,
      "ĠCount": 3331,
      "plication": 3332,
      "Ġinfe": 3333,
      "enced": 3334,
      "umb": 3335,
      "Ġcorrespond": 3336,
      "ccording": 3337,
      "roduction": 3338,
      "ĠCour": 3339,
      "ĠApp": 3340,
      "And": 3341,
      "Ġmovement": 3342,
      "ricult": 3343,
      "eds": 3344,
      "ilies": 3345,
      "ĠDec": 3346,
      "ĠScience": 3347,
      "Ġapplications": 3348,
      "wers": 3349,
      "Ġunc": 3350,
      "Ġwarm": 3351,
      "Ġconver": 3352,
      "Ġdecre": 3353,
      "Ġjo": 3354,
      "Ġmiles": 3355,
      "aff": 3356,
      "ĠJapan": 3357,
      "Ġincorpor": 3358,
      "Ġfollows": 3359,
      "38": 3360,
      "Ġdat": 3361,
      "ĠDo": 3362,
      "Ġsn": 3363,
      "hel": 3364,
      "Ġthus": 3365,
      "Ġextra": 3366,
      "term": 3367,
      "uit": 3368,
      "Ġlate": 3369,
      "Ġperspect": 3370,
      "Ġfile": 3371,
      "rated": 3372,
      "Ġsimpl": 3373,
      "IS": 3374,
      "bor": 3375,
      "Ġfit": 3376,
      "Ġfoot": 3377,
      "Ġdocument": 3378,
      "Ġeth": 3379,
      "ĠSystem": 3380,
      "Ġexploring": 3381,
      "ĠDes": 3382,
      "Ġchemical": 3383,
      "Ġscientific": 3384,
      "ologies": 3385,
      "Ġnetwork": 3386,
      "Ġfun": 3387,
      "time": 3388,
      "ned": 3389,
      "Ġthreat": 3390,
      "Ġviol": 3391,
      "Ġerror": 3392,
      "ecause": 3393,
      "adr": 3394,
      "omin": 3395,
      "Ġasked": 3396,
      "ban": 3397,
      "Ġversion": 3398,
      "Ġhttp": 3399,
      "actions": 3400,
      "Ġclean": 3401,
      "Ġdeveloping": 3402,
      "Ġforces": 3403,
      "Ġstring": 3404,
      "Ġconnect": 3405,
      "32": 3406,
      "ying": 3407,
      "NA": 3408,
      "oles": 3409,
      "0000": 3410,
      "rapy": 3411,
      "39": 3412,
      "eration": 3413,
      "rel": 3414,
      "Ġcompan": 3415,
      "zz": 3416,
      "Ġsaf": 3417,
      "rs": 3418,
      "Ġremains": 3419,
      "Ġcolum": 3420,
      "Ġrules": 3421,
      "Ġnight": 3422,
      "amin": 3423,
      "Ġparalle": 3424,
      "duc": 3425,
      "ĠGra": 3426,
      "34": 3427,
      "Ġquite": 3428,
      "Ġ2013": 3429,
      "AC": 3430,
      "Ġdirectly": 3431,
      "Ġoperations": 3432,
      "ĠApr": 3433,
      "ience": 3434,
      ")/": 3435,
      "ony": 3436,
      "Ġsoil": 3437,
      "idge": 3438,
      "Ġrot": 3439,
      "64": 3440,
      "ibr": 3441,
      "rim": 3442,
      "lished": 3443,
      "Ġproviding": 3444,
      "Ġinvolves": 3445,
      "ĠCanad": 3446,
      "celer": 3447,
      "Ġseems": 3448,
      "ĠMin": 3449,
      "Ġreach": 3450,
      "Ġwalk": 3451,
      "Ġgrowing": 3452,
      "ĠCenter": 3453,
      "Ġhope": 3454,
      "Ġtur": 3455,
      "Ġuseful": 3456,
      "ests": 3457,
      "Ġ2009": 3458,
      "Ġarr": 3459,
      "Ġpowerful": 3460,
      "col": 3461,
      "Ġdaily": 3462,
      "isms": 3463,
      "ades": 3464,
      "ĠMany": 3465,
      "Ġbalance": 3466,
      "Ġofficial": 3467,
      "sum": 3468,
      "encies": 3469,
      "Ġcommunication": 3470,
      "ĠFirst": 3471,
      "Ġestablish": 3472,
      "Ġcool": 3473,
      "Ġarray": 3474,
      "Ġcover": 3475,
      "Ġcompared": 3476,
      "mar": 3477,
      "Ġhundred": 3478,
      "ID": 3479,
      "Ġratio": 3480,
      "aly": 3481,
      "oor": 3482,
      "ĠMod": 3483,
      "rices": 3484,
      "phas": 3485,
      "ĠThrough": 3486,
      "pper": 3487,
      "raw": 3488,
      "ads": 3489,
      "isf": 3490,
      "ĠWill": 3491,
      "ilos": 3492,
      "rote": 3493,
      "Ġchoose": 3494,
      "ĠEach": 3495,
      "Ġforest": 3496,
      "resents": 3497,
      "Ġeverything": 3498,
      "ellow": 3499,
      "Ġpolicy": 3500,
      "Ġskin": 3501,
      "point": 3502,
      "Ġhealthy": 3503,
      "elt": 3504,
      "55": 3505,
      "Ġmid": 3506,
      "Ġfinding": 3507,
      "ube": 3508,
      "ĠEqu": 3509,
      "ĠBritish": 3510,
      "iles": 3511,
      "Ġsafety": 3512,
      "ief": 3513,
      "pret": 3514,
      "Ġ26": 3515,
      "Ġaware": 3516,
      "Ġleaders": 3517,
      "bre": 3518,
      "37": 3519,
      "Ġcapac": 3520,
      "ocity": 3521,
      "Ġcosts": 3522,
      "Ġpromot": 3523,
      "ulate": 3524,
      "Ġancient": 3525,
      "Ġquickly": 3526,
      "itch": 3527,
      "Ġeasily": 3528,
      "Ġprimary": 3529,
      "Ġcoordin": 3530,
      "ister": 3531,
      "Ġgeomet": 3532,
      "Ġrow": 3533,
      "vention": 3534,
      "ĠPres": 3535,
      "ĠCalcul": 3536,
      "IT": 3537,
      "Ġrates": 3538,
      "Ġplaces": 3539,
      "pha": 3540,
      "Ġchapter": 3541,
      "Ġful": 3542,
      "Ġprobably": 3543,
      "arg": 3544,
      "Ġcaused": 3545,
      "Ġjourney": 3546,
      "ðĿĳ": 3547,
      "Ġconcepts": 3548,
      "iency": 3549,
      "Ġvert": 3550,
      "Ġpurpose": 3551,
      "ille": 3552,
      "Ġfost": 3553,
      "rench": 3554,
      "Ġgenerally": 3555,
      "anation": 3556,
      "ĠInst": 3557,
      "Ġvideo": 3558,
      "Ġconstruct": 3559,
      "oday": 3560,
      "Ġhumans": 3561,
      "Ġstrugg": 3562,
      "Ġcomponents": 3563,
      "Ġfasc": 3564,
      "nderstanding": 3565,
      "-\\": 3566,
      "bf": 3567,
      "Ġinfluence": 3568,
      "Ġund": 3569,
      "Ġtherefore": 3570,
      "Ġwall": 3571,
      "ĠJust": 3572,
      "Ġtransport": 3573,
      "ashing": 3574,
      "mathrm": 3575,
      "Ġproduced": 3576,
      "Ġmodels": 3577,
      "Ġpack": 3578,
      "Ġemp": 3579,
      "Ġdiag": 3580,
      "alse": 3581,
      "Ġvel": 3582,
      "ED": 3583,
      "ios": 3584,
      "Ġimmedi": 3585,
      "leep": 3586,
      "Ġtas": 3587,
      "Ġaspects": 3588,
      "Ġrepresents": 3589,
      "Ġfinancial": 3590,
      "ued": 3591,
      "ĠRem": 3592,
      "ronic": 3593,
      "Ġ2008": 3594,
      "Ġfat": 3595,
      "rial": 3596,
      "odes": 3597,
      "times": 3598,
      "Ġsituation": 3599,
      "description": 3600,
      "hens": 3601,
      "ĠBo": 3602,
      "Ġsil": 3603,
      "Ġnarr": 3604,
      "Ġcard": 3605,
      "ĠSm": 3606,
      "Ġcivil": 3607,
      "ager": 3608,
      "itle": 3609,
      "Ġguid": 3610,
      "Ġreported": 3611,
      "Ġlibr": 3612,
      "Ġnote": 3613,
      "Ġdisplay": 3614,
      "Ġisn": 3615,
      "ĠMon": 3616,
      "Ġextreme": 3617,
      "Ġdistinct": 3618,
      ")\\": 3619,
      "Ġdiagn": 3620,
      "Ġmental": 3621,
      "sect": 3622,
      "cdot": 3623,
      "ufact": 3624,
      "Ġmaximum": 3625,
      "Ġmention": 3626,
      "49": 3627,
      "book": 3628,
      "ĠDepartment": 3629,
      "ĠJu": 3630,
      "ĠTrans": 3631,
      "ĠAc": 3632,
      "Ġast": 3633,
      "Ġhands": 3634,
      "eks": 3635,
      "Cl": 3636,
      "Ġmeasures": 3637,
      "Ġcentral": 3638,
      "Ġillust": 3639,
      "Ġ90": 3640,
      "Ġangles": 3641,
      "Ġbat": 3642,
      "Ġfru": 3643,
      "Ġsoon": 3644,
      "Ġdegree": 3645,
      "Ġidentity": 3646,
      "Ġinstit": 3647,
      "Ġsets": 3648,
      "Ġsus": 3649,
      "68": 3650,
      "Ġestablished": 3651,
      "Ġcarbon": 3652,
      "cean": 3653,
      "Ġmultip": 3654,
      "Ġcateg": 3655,
      "lands": 3656,
      "Ġfavor": 3657,
      "Ġfamilies": 3658,
      "ĠDef": 3659,
      "Ġmoving": 3660,
      "Ġroom": 3661,
      "Section": 3662,
      "osite": 3663,
      "ĠInter": 3664,
      "Ġtrack": 3665,
      "nomial": 3666,
      "Ġfair": 3667,
      "cell": 3668,
      "Ġoffers": 3669,
      "Ġcit": 3670,
      "array": 3671,
      "uary": 3672,
      "Ġlabor": 3673,
      "Ġlearned": 3674,
      "Ġconcent": 3675,
      "Ġapplication": 3676,
      "ament": 3677,
      "ĠMy": 3678,
      "rie": 3679,
      "inks": 3680,
      "Ġbott": 3681,
      "At": 3682,
      "Ġwent": 3683,
      "Ġconflict": 3684,
      "Ġdifferences": 3685,
      "ĠEd": 3686,
      "Ġinternational": 3687,
      "oming": 3688,
      "Ġexpected": 3689,
      "Ġsea": 3690,
      "Ġnamed": 3691,
      "Ġforward": 3692,
      "Ġdetails": 3693,
      "ION": 3694,
      "Ġprocesses": 3695,
      "ĠFeb": 3696,
      "cil": 3697,
      "year": 3698,
      "ifically": 3699,
      "Ġcauses": 3700,
      "Ġdynam": 3701,
      "Ġpiece": 3702,
      "racy": 3703,
      "unch": 3704,
      "Ġarri": 3705,
      "iff": 3706,
      "Ġapply": 3707,
      "Ġult": 3708,
      "Ġdetect": 3709,
      "eper": 3710,
      "Ġefficient": 3711,
      "Ġsold": 3712,
      "Ġdepend": 3713,
      "Ġcook": 3714,
      "Ġaccur": 3715,
      "life": 3716,
      "Ġnavig": 3717,
      "oration": 3718,
      "known": 3719,
      "otal": 3720,
      "ĠOther": 3721,
      "Ġ29": 3722,
      "Ġfront": 3723,
      "ĠCalif": 3724,
      "Ġtend": 3725,
      "Ġkids": 3726,
      "Ġproced": 3727,
      "xy": 3728,
      "Ġwrong": 3729,
      "Ġdegrees": 3730,
      "ĠProg": 3731,
      "Ġdivis": 3732,
      "Ġwrote": 3733,
      "Ġreligious": 3734,
      "mosp": 3735,
      "Ġgoal": 3736,
      "irm": 3737,
      "Ġwood": 3738,
      "Ġindependent": 3739,
      "Ġconsequ": 3740,
      "Ġdiverse": 3741,
      "lebr": 3742,
      "Ġappropriate": 3743,
      "Ġtests": 3744,
      "illing": 3745,
      "Ġsubt": 3746,
      "BC": 3747,
      "Ġnation": 3748,
      "Ġheld": 3749,
      "Ġspirit": 3750,
      "anger": 3751,
      "ĠKing": 3752,
      "Ġblock": 3753,
      "ĠClass": 3754,
      "ding": 3755,
      "osure": 3756,
      "off": 3757,
      "Ġdog": 3758,
      "Ġanimal": 3759,
      "Ġlaws": 3760,
      "Ġinteresting": 3761,
      "Ġ?": 3762,
      "tered": 3763,
      "resh": 3764,
      "ĠExpl": 3765,
      "Be": 3766,
      "value": 3767,
      "ĠThus": 3768,
      "Ġrepe": 3769,
      "ĠEduc": 3770,
      "Ġmemory": 3771,
      "Ġactive": 3772,
      "Ġrich": 3773,
      "Ġinteger": 3774,
      "hesis": 3775,
      "gment": 3776,
      "ditionally": 3777,
      "temporary": 3778,
      "Ġinsights": 3779,
      "ĠInc": 3780,
      "Ġitems": 3781,
      "oice": 3782,
      "Ġteachers": 3783,
      "Ġequival": 3784,
      "Ġvariety": 3785,
      "Ġagree": 3786,
      "Ġearlier": 3787,
      "que": 3788,
      "Ġimages": 3789,
      "Ġactions": 3790,
      "Ġlif": 3791,
      "used": 3792,
      "Ġmis": 3793,
      "abilities": 3794,
      "ornia": 3795,
      "Ġbirth": 3796,
      "theta": 3797,
      "Ġresid": 3798,
      "iter": 3799,
      "Ġlost": 3800,
      "ocks": 3801,
      "odies": 3802,
      "Ġpoll": 3803,
      "Ġmiddle": 3804,
      "Ġconnection": 3805,
      "ĠChar": 3806,
      "05": 3807,
      "overn": 3808,
      "iber": 3809,
      "Com": 3810,
      "che": 3811,
      "Ġhar": 3812,
      "Ġtrees": 3813,
      "Ġstarting": 3814,
      "Ġscen": 3815,
      "uge": 3816,
      "Ġdamage": 3817,
      "Ġassign": 3818,
      "Ġdigital": 3819,
      "ags": 3820,
      "Ġneigh": 3821,
      "Ġprojects": 3822,
      "Ġsatisf": 3823,
      "Ġmother": 3824,
      "Ġtown": 3825,
      "amental": 3826,
      "Ġq": 3827,
      "Ġpan": 3828,
      "Ġdemand": 3829,
      "Ġ2007": 3830,
      "Ġanything": 3831,
      "Ġchoice": 3832,
      "Ġcontinued": 3833,
      "Ġmole": 3834,
      "Ġmilitary": 3835,
      "overy": 3836,
      "word": 3837,
      "Ġfraction": 3838,
      "Ġemphas": 3839,
      "na": 3840,
      "Ġdiet": 3841,
      "Ġlack": 3842,
      "Ġlocation": 3843,
      "iers": 3844,
      "Ġlimited": 3845,
      "Ġseason": 3846,
      "Ġallowing": 3847,
      "asons": 3848,
      "Ġcompre": 3849,
      "ĠUsing": 3850,
      "(-": 3851,
      "Ġsett": 3852,
      "itable": 3853,
      "Ġlargest": 3854,
      "Ġscale": 3855,
      "yp": 3856,
      "osition": 3857,
      "Ġadop": 3858,
      "77": 3859,
      "Ġtypically": 3860,
      "eed": 3861,
      "python": 3862,
      "see": 3863,
      "Ġspeak": 3864,
      "Ġreceived": 3865,
      "Ġdark": 3866,
      "ĠDis": 3867,
      "Ġoptions": 3868,
      "room": 3869,
      "Ġshall": 3870,
      "ĠAp": 3871,
      "Ġstructures": 3872,
      "Ġstraight": 3873,
      "Ġsort": 3874,
      "Ġmount": 3875,
      "ĠSub": 3876,
      "Ġstrength": 3877,
      "ĠHer": 3878,
      "ancy": 3879,
      "Ġice": 3880,
      "Ġten": 3881,
      "Ġbul": 3882,
      "Ġsuccessful": 3883,
      "Ġexpand": 3884,
      "Ġdivided": 3885,
      "ĠTechn": 3886,
      "Ġfast": 3887,
      "ĠPython": 3888,
      "vest": 3889,
      "Ġusers": 3890,
      "ET": 3891,
      "Ġsmo": 3892,
      "tool": 3893,
      "Ġhyd": 3894,
      "Ġvelocity": 3895,
      "Ġhost": 3896,
      "nds": 3897,
      "Ġgard": 3898,
      "Ġeye": 3899,
      "Ġupd": 3900,
      "Ġsentence": 3901,
      "useum": 3902,
      "Ġrob": 3903,
      "Ġdidn": 3904,
      "Ġdescribed": 3905,
      "ĠRet": 3906,
      "rical": 3907,
      "Ġcollection": 3908,
      "water": 3909,
      "mission": 3910,
      "Ġrect": 3911,
      "Ġcarry": 3912,
      "Ġmotion": 3913,
      "Ġpoor": 3914,
      "Ġrespond": 3915,
      "Ġgoes": 3916,
      "Ġadminist": 3917,
      "abet": 3918,
      "bl": 3919,
      "Ġacceler": 3920,
      "Ġsecurity": 3921,
      "Ġdiscover": 3922,
      "olute": 3923,
      "Ġprinciples": 3924,
      "Ġplot": 3925,
      "Ġbeginning": 3926,
      "ĠArt": 3927,
      "ĠHar": 3928,
      "uff": 3929,
      "ana": 3930,
      "ga": 3931,
      "Ġconcern": 3932,
      "ĠMarch": 3933,
      "call": 3934,
      "Ġ80": 3935,
      "ĠLaw": 3936,
      "Ġresistance": 3937,
      "Ġinteract": 3938,
      "\")": 3939,
      "Ġmanufact": 3940,
      "Ġprivate": 3941,
      "ĠHistory": 3942,
      "Ġshared": 3943,
      "Ġsignificantly": 3944,
      "ĠInstitute": 3945,
      "Ġcompanies": 3946,
      "Ġeyes": 3947,
      "Ġserious": 3948,
      "ĠCur": 3949,
      "Ġdefinition": 3950,
      "ĠJune": 3951,
      "Ġmathematical": 3952,
      "Ġapplied": 3953,
      "ĠCalifornia": 3954,
      "Ġded": 3955,
      "Ġcoe": 3956,
      "Ġpick": 3957,
      "Ġvirt": 3958,
      "Ġkil": 3959,
      "Ġhypot": 3960,
      "ĠFrench": 3961,
      "Ġplane": 3962,
      "wide": 3963,
      "Ġsoftware": 3964,
      "Ġalternative": 3965,
      "iny": 3966,
      "Ġhot": 3967,
      "ĠOver": 3968,
      "Ġcred": 3969,
      "Ġexercise": 3970,
      "ifying": 3971,
      "Ġproport": 3972,
      "Ġdiscovered": 3973,
      "Ġformat": 3974,
      "Ġresponsible": 3975,
      "ĠTherefore": 3976,
      "Ġbasis": 3977,
      "iful": 3978,
      "ancing": 3979,
      "Ġ45": 3980,
      "Ġargument": 3981,
      "Ġplat": 3982,
      "Ġnews": 3983,
      "aith": 3984,
      "95": 3985,
      "Ġalthough": 3986,
      "itect": 3987,
      "Ġjud": 3988,
      "ĠWest": 3989,
      "Ġconnections": 3990,
      "gar": 3991,
      "Ġfig": 3992,
      "aid": 3993,
      "Ġchallenge": 3994,
      "Ġfrequency": 3995,
      "EC": 3996,
      "Ġsaw": 3997,
      "ought": 3998,
      "ino": 3999,
      "raction": 4000,
      "ection": 4001,
      "Ġinstall": 4002,
      "67": 4003,
      "ĠServ": 4004,
      "31": 4005,
      "ha": 4006,
      "Ġpattern": 4007,
      "These": 4008,
      "Ġinfin": 4009,
      "Ġtold": 4010,
      "47": 4011,
      "Ġ35": 4012,
      "Ġcam": 4013,
      "Ġrapid": 4014,
      "Ġattack": 4015,
      "Ġdoctor": 4016,
      "ferences": 4017,
      "chol": 4018,
      "uries": 4019,
      "Ġpatient": 4020,
      "ĠChristian": 4021,
      "ĠProble": 4022,
      "Ġveget": 4023,
      "Ġalgebra": 4024,
      "Ġcou": 4025,
      "ĠAlthough": 4026,
      "Ġexperiment": 4027,
      "comm": 4028,
      "Ġcontribute": 4029,
      "Ġbelief": 4030,
      "Ġwebsite": 4031,
      "Ġintegers": 4032,
      "Ġcelebr": 4033,
      "ĠEuropean": 4034,
      "Ġvia": 4035,
      "Ġbrought": 4036,
      "Ġpen": 4037,
      "Ġinvolve": 4038,
      "ĠIndian": 4039,
      "rick": 4040,
      "Ġcalls": 4041,
      "ĠAustral": 4042,
      "Ġderiv": 4043,
      "\",\"": 4044,
      "ĠAfrican": 4045,
      "ĠTest": 4046,
      "ĠWell": 4047,
      "Ġpow": 4048,
      "ham": 4049,
      "ipment": 4050,
      "Ġweeks": 4051,
      "Ġroots": 4052,
      "pty": 4053,
      "ĠGl": 4054,
      "Ġblue": 4055,
      "Ġeat": 4056,
      "roup": 4057,
      "ĠDav": 4058,
      "Ġrock": 4059,
      "Ġconclusion": 4060,
      "Ġexec": 4061,
      "ashington": 4062,
      "icate": 4063,
      "Ġregarding": 4064,
      "uman": 4065,
      "01": 4066,
      "Ġatmosp": 4067,
      "Ġgoals": 4068,
      "Ġorigin": 4069,
      "Ġserve": 4070,
      "Ġfuel": 4071,
      "Ġdimens": 4072,
      "comes": 4073,
      "Ġnovel": 4074,
      "98": 4075,
      "tember": 4076,
      "Ġinterpret": 4077,
      "Ġconcerns": 4078,
      "Ġexpert": 4079,
      "issions": 4080,
      "Ġlandsc": 4081,
      "Ġdecl": 4082,
      "Ġformed": 4083,
      "Ġlat": 4084,
      "Ġcolon": 4085,
      "ĠSur": 4086,
      "Ġnuc": 4087,
      "Ġâī": 4088,
      "Ġimag": 4089,
      "$$\\": 4090,
      "Another": 4091,
      "load": 4092,
      "Ġep": 4093,
      "Ġworth": 4094,
      "+\\": 4095,
      "Un": 4096,
      "Ġdecisions": 4097,
      "ĠChe": 4098,
      "ollow": 4099,
      "Ġprop": 4100,
      "Ġeffectively": 4101,
      "Ġfascinating": 4102,
      "Ġhon": 4103,
      "AA": 4104,
      "Ġaccom": 4105,
      "gy": 4106,
      "Ġfields": 4107,
      "ĠPost": 4108,
      "Ġstore": 4109,
      "Ġvalid": 4110,
      "Ġdevices": 4111,
      "Ġcapital": 4112,
      "Ġhimself": 4113,
      "Ġsetting": 4114,
      "Ġprofessional": 4115,
      "Ġgradu": 4116,
      "Ġsolar": 4117,
      "Ġapproximately": 4118,
      "Ġfear": 4119,
      "uses": 4120,
      "oe": 4121,
      "Ġadding": 4122,
      "olic": 4123,
      "Ġround": 4124,
      "Ġtesting": 4125,
      "Ġplanet": 4126,
      "ĠVol": 4127,
      "Ġpicture": 4128,
      "Ġhabit": 4129,
      "Ġadjust": 4130,
      "Ġnothing": 4131,
      "aught": 4132,
      "Ġcircum": 4133,
      "Sh": 4134,
      "arian": 4135,
      "Ġteaching": 4136,
      "Ġveh": 4137,
      "ĠStage": 4138,
      "ĠPress": 4139,
      "Ġphilos": 4140,
      "Ġnearly": 4141,
      "ingu": 4142,
      "Ġplease": 4143,
      "ĠChina": 4144,
      "edia": 4145,
      "Ġdeeper": 4146,
      "Ġreceive": 4147,
      "Ġwon": 4148,
      "iliar": 4149,
      "ellig": 4150,
      "ĠGo": 4151,
      "cious": 4152,
      "istry": 4153,
      "Ġpurch": 4154,
      "ĠGree": 4155,
      "df": 4156,
      "tee": 4157,
      "Ġmessage": 4158,
      "Ġkg": 4159,
      "Ġclos": 4160,
      "ternal": 4161,
      "Ġdate": 4162,
      "Ġ==": 4163,
      "Ġweather": 4164,
      "Ġtru": 4165,
      "ĠCor": 4166,
      "ĠRel": 4167,
      "ĠAugust": 4168,
      "Ġsites": 4169,
      "46": 4170,
      "?\"": 4171,
      "ĠAng": 4172,
      "Ġorganizations": 4173,
      "Ġfight": 4174,
      "ĠIndia": 4175,
      "Ġsupply": 4176,
      "ĠOf": 4177,
      "Ġplanning": 4178,
      "ĠInternational": 4179,
      "edom": 4180,
      "ĠEl": 4181,
      "Ġinches": 4182,
      "pan": 4183,
      "Ġenter": 4184,
      "\":{\"": 4185,
      "omy": 4186,
      "Ġpieces": 4187,
      "erson": 4188,
      "aul": 4189,
      "Ġbab": 4190,
      "ype": 4191,
      "Ġtask": 4192,
      "care": 4193,
      "son": 4194,
      "ĠApril": 4195,
      "Ġmachine": 4196,
      "da": 4197,
      "Ġchance": 4198,
      "Ġsleep": 4199,
      "Ġreaders": 4200,
      "Ġwin": 4201,
      "Ġwaste": 4202,
      "ĠDevelop": 4203,
      "].": 4204,
      "orial": 4205,
      "ĠBar": 4206,
      "ĠMc": 4207,
      "ĠSpe": 4208,
      "Ġtou": 4209,
      "Ġfollowed": 4210,
      "Ġadvant": 4211,
      "Ġcompar": 4212,
      "outhern": 4213,
      "With": 4214,
      "Ġwat": 4215,
      "Ġord": 4216,
      "Ġmathematics": 4217,
      "lement": 4218,
      "Ġ\\(": 4219,
      "ishing": 4220,
      "}^": 4221,
      "Is": 4222,
      "ĠâĢ¦": 4223,
      "ĠRiver": 4224,
      "Ġsuff": 4225,
      "Ġactual": 4226,
      "Ġconnected": 4227,
      "Ġincreases": 4228,
      "ĠCong": 4229,
      "ĠMost": 4230,
      "Ġcommand": 4231,
      "Ġpolynomial": 4232,
      "Ġwanted": 4233,
      "Ġconstit": 4234,
      "ĠEven": 4235,
      "can": 4236,
      "ĠRuss": 4237,
      "ĠTheir": 4238,
      "Ġnorth": 4239,
      "Ġresulting": 4240,
      "Ġguide": 4241,
      "Ġexisting": 4242,
      "Ġing": 4243,
      "Ġalone": 4244,
      "Ġalgorithm": 4245,
      "orders": 4246,
      "Ġmember": 4247,
      "oud": 4248,
      "Ġagricult": 4249,
      "ĠOur": 4250,
      "ĠAssoci": 4251,
      "ilit": 4252,
      "Ġweb": 4253,
      "Ġautom": 4254,
      "Ġquadr": 4255,
      "Ġbad": 4256,
      "with": 4257,
      "Ġreduced": 4258,
      "Ġhighly": 4259,
      "Ġperhaps": 4260,
      "Ġnames": 4261,
      "PA": 4262,
      "Ġlocated": 4263,
      "Ġengaging": 4264,
      "mitted": 4265,
      "Ġkm": 4266,
      "Ġsolid": 4267,
      "ĠDiv": 4268,
      "Ġgir": 4269,
      "Ġfather": 4270,
      "Ġdeal": 4271,
      "ĠAmericans": 4272,
      "ĠâĨ": 4273,
      "hest": 4274,
      "'d": 4275,
      "Ġtrust": 4276,
      "Ġeffort": 4277,
      "Ġbacter": 4278,
      "Ġcoast": 4279,
      "alities": 4280,
      "uild": 4281,
      "wards": 4282,
      "Ġappears": 4283,
      "ĠJuly": 4284,
      "amb": 4285,
      "Ġplatform": 4286,
      "Ġleave": 4287,
      "ĠSte": 4288,
      "ĠForm": 4289,
      "ĠAnt": 4290,
      "zing": 4291,
      "Ġscreen": 4292,
      "ĠMus": 4293,
      "mary": 4294,
      "hors": 4295,
      "However": 4296,
      "num": 4297,
      "Ġlegal": 4298,
      "Ġnumerous": 4299,
      "Ġpossib": 4300,
      "anging": 4301,
      "Ġcitiz": 4302,
      "Ġmap": 4303,
      "Ġparallel": 4304,
      "Ġapproaches": 4305,
      "ĠRed": 4306,
      "Ġplaced": 4307,
      "Ġsup": 4308,
      "Ġmut": 4309,
      "ĠWashington": 4310,
      "Ġindex": 4311,
      "Ġinstr": 4312,
      "Ġleaves": 4313,
      "Ġemotional": 4314,
      "Ġtrade": 4315,
      "ĠLear": 4316,
      "rab": 4317,
      "Ġteacher": 4318,
      "Ġconstruction": 4319,
      "Ġanswers": 4320,
      "Ġeasier": 4321,
      "ĠCO": 4322,
      "Ġsevere": 4323,
      "imize": 4324,
      "Ġallowed": 4325,
      "Ġfundamental": 4326,
      "angles": 4327,
      "88": 4328,
      "Ġ{\\": 4329,
      "Ġequivalent": 4330,
      "\\\\": 4331,
      "ama": 4332,
      "ĠTwo": 4333,
      "ĠOb": 4334,
      "reet": 4335,
      "Ġstandards": 4336,
      "Ġemploye": 4337,
      "cember": 4338,
      "ĠInte": 4339,
      "ĠÐ": 4340,
      "bal": 4341,
      "su": 4342,
      "Ġadults": 4343,
      "Ġcontemporary": 4344,
      "Ġdevice": 4345,
      "ĠCommun": 4346,
      "Ġbreat": 4347,
      "Ġdry": 4348,
      "Ġtruth": 4349,
      "ĠVal": 4350,
      "Ġadvanced": 4351,
      "42": 4352,
      "Ġopportunity": 4353,
      "Ġoccurs": 4354,
      "ulated": 4355,
      "estic": 4356,
      "clusion": 4357,
      "ĠUnderstanding": 4358,
      "iable": 4359,
      "Ġclin": 4360,
      "pped": 4361,
      "Ġiniti": 4362,
      "elcome": 4363,
      "Ġgold": 4364,
      "onic": 4365,
      "Ġtrig": 4366,
      "ĠGerman": 4367,
      "Ġsurrounding": 4368,
      "Ġfindings": 4369,
      "ĠGreat": 4370,
      "Ġwatch": 4371,
      "AM": 4372,
      "Ġ2006": 4373,
      "Ġoutcomes": 4374,
      "Ġrecently": 4375,
      "ĠPhys": 4376,
      "ÏĢ": 4377,
      "Ġoperation": 4378,
      "omb": 4379,
      "ext": 4380,
      "exic": 4381,
      "Ġegg": 4382,
      "Ġworked": 4383,
      "Ġhoriz": 4384,
      "Ġtim": 4385,
      "Ġcontroll": 4386,
      "ĠAfrica": 4387,
      "Ġeffic": 4388,
      "erate": 4389,
      "Ġdecided": 4390,
      "Ġdead": 4391,
      "Ġfoods": 4392,
      "RE": 4393,
      "Ġheard": 4394,
      "ĠMult": 4395,
      "Ġexhib": 4396,
      "Ġworkers": 4397,
      "Ġrare": 4398,
      "Ġrelevant": 4399,
      "76": 4400,
      "cast": 4401,
      "Ġliterature": 4402,
      "ĠCity": 4403,
      "Ġrout": 4404,
      "Ġequipment": 4405,
      "ĠJour": 4406,
      "Ġsummer": 4407,
      "ĠBra": 4408,
      "ĠChild": 4409,
      "Ġcomprehens": 4410,
      "RO": 4411,
      "uting": 4412,
      "Ġrecommend": 4413,
      "Ġvict": 4414,
      "ĠSw": 4415,
      "Ġgames": 4416,
      "Ġfeature": 4417,
      "Ġbottom": 4418,
      "alpha": 4419,
      "HE": 4420,
      "change": 4421,
      "First": 4422,
      "Ph": 4423,
      "cks": 4424,
      "Ġdrink": 4425,
      "96": 4426,
      "Ġcand": 4427,
      "ech": 4428,
      "Ġbeautiful": 4429,
      "uzz": 4430,
      "Ġprotection": 4431,
      "Ġfresh": 4432,
      "ĠAlso": 4433,
      "eterm": 4434,
      "ĠExample": 4435,
      "Ġstage": 4436,
      "Ġdecimal": 4437,
      "Ġrise": 4438,
      "Ġhous": 4439,
      "Ġtopics": 4440,
      "Ġcore": 4441,
      "rete": 4442,
      "Ġborn": 4443,
      "Ġimagine": 4444,
      "ĠOnce": 4445,
      "gn": 4446,
      "Ġfederal": 4447,
      "Ġsouth": 4448,
      "which": 4449,
      "uk": 4450,
      "Ġcommer": 4451,
      "Ġsurpr": 4452,
      "Ġbeg": 4453,
      "ĠOut": 4454,
      "atur": 4455,
      "stitution": 4456,
      "ĠSum": 4457,
      "Ġfilled": 4458,
      "elines": 4459,
      "Ġminimum": 4460,
      "ystem": 4461,
      "Ġcounter": 4462,
      "Ġacqu": 4463,
      "tr": 4464,
      "Post": 4465,
      "rief": 4466,
      "Ġgiving": 4467,
      "Ġolder": 4468,
      "ovember": 4469,
      "ĠDuring": 4470,
      "orthern": 4471,
      "Ġcharge": 4472,
      "Example": 4473,
      "ses": 4474,
      "Ġorganization": 4475,
      "ĠFurther": 4476,
      "Ġson": 4477,
      "Ġslight": 4478,
      "ĠEducation": 4479,
      "Ġvacc": 4480,
      "Ġreality": 4481,
      "Ġinterval": 4482,
      "ĠJanuary": 4483,
      "key": 4484,
      "iring": 4485,
      "aur": 4486,
      "oses": 4487,
      "Ġbenefit": 4488,
      "rew": 4489,
      "Ġdescribe": 4490,
      "Ġ36": 4491,
      "Ġcolumn": 4492,
      ",\\": 4493,
      "ĠJewish": 4494,
      "fered": 4495,
      "Ġvary": 4496,
      "Ġsuggests": 4497,
      "Ġswe": 4498,
      "Ġconvert": 4499,
      "ĠSeptember": 4500,
      "Ġrunning": 4501,
      "43": 4502,
      "force": 4503,
      "otic": 4504,
      "Ġroll": 4505,
      "imin": 4506,
      "Ġhappens": 4507,
      "Ġdiscussion": 4508,
      "ĠConsider": 4509,
      "Ġteach": 4510,
      "Ġbackground": 4511,
      "From": 4512,
      "yd": 4513,
      "olve": 4514,
      "Ġletter": 4515,
      "Ġtechnologies": 4516,
      "Ġreveal": 4517,
      "Ġradius": 4518,
      "Ġchanging": 4519,
      "Ġcompletely": 4520,
      "Ġcurve": 4521,
      "Ġstream": 4522,
      "Ġwoman": 4523,
      "Ġcombination": 4524,
      "Ġtiss": 4525,
      "Ġevolution": 4526,
      "Ġobserved": 4527,
      "ĠOctober": 4528,
      "ĠEngland": 4529,
      "AP": 4530,
      "ĠGeneral": 4531,
      "rael": 4532,
      "cel": 4533,
      "Ġresource": 4534,
      "ĠHigh": 4535,
      "Ġmatch": 4536,
      "rogen": 4537,
      "ĠToday": 4538,
      "Ġreturns": 4539,
      "ball": 4540,
      "Ġfaith": 4541,
      "Ġ32": 4542,
      "ocr": 4543,
      "Ġprove": 4544,
      "ĠSimilar": 4545,
      "Ġformer": 4546,
      "Ġ70": 4547,
      "ĠWilliam": 4548,
      "That": 4549,
      "ara": 4550,
      "ocol": 4551,
      "MAT": 4552,
      "ĠMathemat": 4553,
      "ĠNumber": 4554,
      "Ġconduct": 4555,
      "mathbf": 4556,
      "Ġdial": 4557,
      "Ġtransfer": 4558,
      "olving": 4559,
      "Ġdu": 4560,
      "tage": 4561,
      "ruary": 4562,
      "ĠWhy": 4563,
      "Ġboard": 4564,
      "Ġonto": 4565,
      "idden": 4566,
      "Ġrain": 4567,
      "ĠGovern": 4568,
      "}}{": 4569,
      "Ġgets": 4570,
      "Ġarchitect": 4571,
      "Ġdefine": 4572,
      "Ġcapacity": 4573,
      "Ġ2000": 4574,
      "ĠNum": 4575,
      "enty": 4576,
      "ĠMexic": 4577,
      "Ġcurrently": 4578,
      "Ġchanged": 4579,
      "85": 4580,
      "utive": 4581,
      "Ġreference": 4582,
      "Ġcontinuous": 4583,
      "Ġseparate": 4584,
      "Ġdivide": 4585,
      "ĠSoci": 4586,
      "dent": 4587,
      "Ġproof": 4588,
      "ĠCounty": 4589,
      "ĠAN": 4590,
      "Ġregions": 4591,
      "Ġpassed": 4592,
      "Ġdouble": 4593,
      "Ġgave": 4594,
      "Ġthoughts": 4595,
      "Ġtail": 4596,
      "ded": 4597,
      "Ġincome": 4598,
      "Ġopposite": 4599,
      "Ġdiseases": 4600,
      "ĠPresident": 4601,
      "Ġemail": 4602,
      "ĠVir": 4603,
      "cal": 4604,
      "ĠAccording": 4605,
      "Ġstyle": 4606,
      "Ġpresence": 4607,
      "ĠProf": 4608,
      "Find": 4609,
      "Ġphen": 4610,
      "spe": 4611,
      "More": 4612,
      "eta": 4613,
      "urg": 4614,
      "Ġlived": 4615,
      "rect": 4616,
      "ĠFact": 4617,
      "dx": 4618,
      "ĠPark": 4619,
      "While": 4620,
      "Ġrelatively": 4621,
      "ĠUnit": 4622,
      "idth": 4623,
      "Ġroad": 4624,
      "LE": 4625,
      "ĠIS": 4626,
      "Ġincl": 4627,
      "Ġspecifically": 4628,
      "Ġlesson": 4629,
      "Ġcities": 4630,
      "Ġacadem": 4631,
      "Ġexposure": 4632,
      "Ġpromote": 4633,
      "Ġtour": 4634,
      "ĠRead": 4635,
      "ht": 4636,
      "âĤ": 4637,
      "matrix": 4638,
      "Res": 4639,
      "opy": 4640,
      "ĠExp": 4641,
      "Ġmission": 4642,
      "ĠĠĠĠĠĠĠĠĠĠĠĠĠĠĠĠ": 4643,
      "Ġreasons": 4644,
      "Ġmentioned": 4645,
      "Ġcoming": 4646,
      "Ġadvance": 4647,
      "ĠProgram": 4648,
      "men": 4649,
      "Ġstrategy": 4650,
      "Ġoccup": 4651,
      "Last": 4652,
      "Ġcry": 4653,
      "Ġrefers": 4654,
      "icip": 4655,
      "Ġpeace": 4656,
      "udd": 4657,
      "mod": 4658,
      "Ġeducational": 4659,
      "rors": 4660,
      "from": 4661,
      "rition": 4662,
      "xi": 4663,
      "Imagine": 4664,
      "ĠRo": 4665,
      "Ġoption": 4666,
      "ession": 4667,
      "Ġdoub": 4668,
      "ĠDay": 4669,
      "Ġsigns": 4670,
      "SE": 4671,
      "Ġcomfort": 4672,
      "Can": 4673,
      "Ġthousands": 4674,
      "ĠAdditionally": 4675,
      "Ġ2014": 4676,
      "ĠColle": 4677,
      "works": 4678,
      "Some": 4679,
      "Us": 4680,
      "Ġsharing": 4681,
      "omic": 4682,
      "Ġfamous": 4683,
      "rupt": 4684,
      "function": 4685,
      "cles": 4686,
      "79": 4687,
      "Ġweak": 4688,
      "Ġmeeting": 4689,
      "Ġstatus": 4690,
      "Ġsignificance": 4691,
      "56": 4692,
      "Ġacid": 4693,
      "ĠAns": 4694,
      "ĠCanada": 4695,
      "enth": 4696,
      "Ġbran": 4697,
      "Ġmaster": 4698,
      "Ġcourt": 4699,
      "41": 4700,
      "Ġanyone": 4701,
      "Ġintegral": 4702,
      "Ġexpon": 4703,
      "Ad": 4704,
      "ĠSan": 4705,
      "ÃĹ": 4706,
      "hips": 4707,
      "ĠChurch": 4708,
      "usive": 4709,
      "Ġadvent": 4710,
      "Ġking": 4711,
      "Ġpopulations": 4712,
      "Ġsociet": 4713,
      "Ġgrav": 4714,
      "Ġauthors": 4715,
      "ste": 4716,
      "Ġ2005": 4717,
      "08": 4718,
      "Ġpartners": 4719,
      "Ġhosp": 4720,
      "ĠQuestion": 4721,
      "Ġpolicies": 4722,
      "ava": 4723,
      "Ġcraft": 4724,
      "Ġrisks": 4725,
      "Ġinterested": 4726,
      "Ġintegr": 4727,
      "list": 4728,
      "Ġsolving": 4729,
      "aign": 4730,
      "Ġaffected": 4731,
      "Ġinsp": 4732,
      "Ġ%": 4733,
      "house": 4734,
      "ford": 4735,
      "mal": 4736,
      "Ġplans": 4737,
      "Ġtele": 4738,
      "Ġfully": 4739,
      "Ġcub": 4740,
      "Ġbond": 4741,
      "ĠPat": 4742,
      "going": 4743,
      "Ġtechnique": 4744,
      "Ġload": 4745,
      "ĠDi": 4746,
      "estions": 4747,
      "*}": 4748,
      "nes": 4749,
      "ĠWeb": 4750,
      "Ġdivers": 4751,
      "Ġtopic": 4752,
      "ky": 4753,
      "Ġsituations": 4754,
      "à®": 4755,
      "Ġinequ": 4756,
      "Ġreducing": 4757,
      "Ġdanger": 4758,
      "Ġexperim": 4759,
      "eding": 4760,
      "Ġeconomy": 4761,
      "ĠSee": 4762,
      "Ġdigits": 4763,
      "ĠDecember": 4764,
      "ĠMr": 4765,
      "ĠHel": 4766,
      "Ġfigures": 4767,
      "Since": 4768,
      "urt": 4769,
      "Ġtherapy": 4770,
      "Ġliqu": 4771,
      "Ġsignal": 4772,
      "Ġdro": 4773,
      "era": 4774,
      "Ġplaying": 4775,
      "ographic": 4776,
      "gra": 4777,
      "ouncil": 4778,
      "Ġeight": 4779,
      "Ġinvolving": 4780,
      "abetes": 4781,
      "athy": 4782,
      "Ġdied": 4783,
      "Ġbelong": 4784,
      "ether": 4785,
      "OT": 4786,
      "osen": 4787,
      "ĠFunction": 4788,
      "quare": 4789,
      "Ġdetermined": 4790,
      "Ġschol": 4791,
      "Ġphr": 4792,
      "Ġutil": 4793,
      "section": 4794,
      "Ġestimate": 4795,
      "After": 4796,
      "Ġtrib": 4797,
      "ĠInstead": 4798,
      "Question": 4799,
      "tex": 4800,
      "Ġinternal": 4801,
      "Ġtasks": 4802,
      "Ġbodies": 4803,
      "Ġmultiply": 4804,
      "Ġ31": 4805,
      "Ġabsolute": 4806,
      "ĠAlex": 4807,
      "ĠStat": 4808,
      "Ġprepar": 4809,
      "........": 4810,
      "Ġclasses": 4811,
      "Ġinfection": 4812,
      "AB": 4813,
      "iveness": 4814,
      "Ġbirds": 4815,
      "Ġpresented": 4816,
      "Ġrepresented": 4817,
      "Ġwonder": 4818,
      "Ġmist": 4819,
      "Solution": 4820,
      "ĠData": 4821,
      "¿½": 4822,
      "Ġodd": 4823,
      "iant": 4824,
      "Ġpages": 4825,
      "ĠBecause": 4826,
      "agon": 4827,
      "ondon": 4828,
      "Ġfemale": 4829,
      "ĠStand": 4830,
      "Ġdensity": 4831,
      "ĠïĢ": 4832,
      "igenous": 4833,
      "iverse": 4834,
      "ĠIsrael": 4835,
      "Ġvill": 4836,
      "uration": 4837,
      "erved": 4838,
      "Ġletters": 4839,
      "}=": 4840,
      "Ġnotes": 4841,
      "Ġaccurate": 4842,
      "Ġcold": 4843,
      "Ġdigit": 4844,
      "Ġspring": 4845,
      "inder": 4846,
      "Ġgenetic": 4847,
      "Ġbillion": 4848,
      "pected": 4849,
      "58": 4850,
      "Ġseven": 4851,
      "Ġdivision": 4852,
      "ĠBi": 4853,
      "Ġturned": 4854,
      "Ġcomponent": 4855,
      "Ġdepth": 4856,
      "Ġedge": 4857,
      "acing": 4858,
      "ĠâĢ¢": 4859,
      "Ġsem": 4860,
      "ĠAv": 4861,
      "ken": 4862,
      "oted": 4863,
      "ĠEast": 4864,
      "requ": 4865,
      "inese": 4866,
      "Ġbehavi": 4867,
      "Ġtheorem": 4868,
      "ĠLine": 4869,
      "Ġcommonly": 4870,
      "Ġlibrary": 4871,
      "olved": 4872,
      "Ġtransl": 4873,
      "lude": 4874,
      "Ġintellig": 4875,
      "ĠPract": 4876,
      "Ġdepending": 4877,
      "ris": 4878,
      "ĠNovember": 4879,
      "Ġlessons": 4880,
      "Ġshowed": 4881,
      "dfrac": 4882,
      "Ġupper": 4883,
      "iced": 4884,
      "Ġpet": 4885,
      "rows": 4886,
      "inations": 4887,
      "Ġbuy": 4888,
      "Ġenhance": 4889,
      "Ġrequirements": 4890,
      "Ġbank": 4891,
      "asure": 4892,
      "Ġpounds": 4893,
      "ev": 4894,
      "Ġhighest": 4895,
      "Ġstar": 4896,
      "ĠJournal": 4897,
      "________________": 4898,
      "PS": 4899,
      "ĠStep": 4900,
      "fty": 4901,
      "Ġdiam": 4902,
      "````": 4903,
      "ĠLat": 4904,
      "Ġmotiv": 4905,
      "cipl": 4906,
      "istical": 4907,
      "Ġcontrast": 4908,
      "ĠFl": 4909,
      "Ġprotein": 4910,
      "Ġfelt": 4911,
      "Ġexists": 4912,
      "Ġcontaining": 4913,
      "Ġeventually": 4914,
      "</": 4915,
      "Ġhom": 4916,
      "Ġpractical": 4917,
      "apers": 4918,
      "Ġhappen": 4919,
      "itis": 4920,
      "Ġlooks": 4921,
      "Ġprofession": 4922,
      "arge": 4923,
      "ĠMich": 4924,
      "Ġrecords": 4925,
      "All": 4926,
      "antic": 4927,
      "ĠOff": 4928,
      "ĠJes": 4929,
      "ĠArch": 4930,
      "Ġconsequences": 4931,
      "ĠIts": 4932,
      "Ġspect": 4933,
      "airs": 4934,
      "coh": 4935,
      "No": 4936,
      "orge": 4937,
      "Ġsurvey": 4938,
      "ĠPlan": 4939,
      "Ġengineering": 4940,
      "igr": 4941,
      "Ġpercentage": 4942,
      "Ġensuring": 4943,
      "that": 4944,
      "ĠLa": 4945,
      "Ġcommercial": 4946,
      "Ġclearly": 4947,
      "Ġcharacteristics": 4948,
      "ĠSam": 4949,
      "Ġhelping": 4950,
      "Ġdive": 4951,
      "Int": 4952,
      "iform": 4953,
      "aint": 4954,
      "alysis": 4955,
      "Ġfreedom": 4956,
      "Ġhelped": 4957,
      "Ġspaces": 4958,
      "ĠAI": 4959,
      "ĠGreen": 4960,
      "Ġsave": 4961,
      "Ġreplace": 4962,
      "Ġcitizens": 4963,
      "ĠRev": 4964,
      "Ġcircuit": 4965,
      "Ġempty": 4966,
      "Ġfeeling": 4967,
      "Ġforeign": 4968,
      "02": 4969,
      "06": 4970,
      "Ġfractions": 4971,
      "Ġinterests": 4972,
      "ĠShow": 4973,
      "ping": 4974,
      "ĠWork": 4975,
      "ception": 4976,
      "Ġtrou": 4977,
      "Ġunivers": 4978,
      "ĠHouse": 4979,
      "Ġsac": 4980,
      "ĠRoman": 4981,
      "Ġconservation": 4982,
      "Ġcorresponding": 4983,
      "cont": 4984,
      "Ġcro": 4985,
      "Ġsufficient": 4986,
      "Ġwave": 4987,
      "Ġfeelings": 4988,
      "Ġesc": 4989,
      "Ġdoll": 4990,
      "Ġimmediately": 4991,
      "add": 4992,
      "iance": 4993,
      "ĠSet": 4994,
      "ica": 4995,
      "ĠÏĢ": 4996,
      "Ġspent": 4997,
      "ean": 4998,
      "Expl": 4999,
      "}(": 5000,
      "57": 5001,
      "Ġremaining": 5002,
      "Ġmi": 5003,
      "Â²": 5004,
      "Ġready": 5005,
      "Ġannual": 5006,
      "Ġengage": 5007,
      "ĠPM": 5008,
      "Ġplays": 5009,
      "09": 5010,
      "Ġprefer": 5011,
      "system": 5012,
      "ĠStudents": 5013,
      "Ġanti": 5014,
      "Ġvit": 5015,
      "Ġconv": 5016,
      "Ġurban": 5017,
      "Ġaxis": 5018,
      "Ġriver": 5019,
      "Ġchallenging": 5020,
      "oper": 5021,
      "Ġatmosphere": 5022,
      "Ġdespite": 5023,
      "Ġtang": 5024,
      "Ġphilosoph": 5025,
      "Ġmob": 5026,
      "Ġsustainable": 5027,
      "infty": 5028,
      "Ġgenerate": 5029,
      "board": 5030,
      "Ġattrib": 5031,
      "Ġrepl": 5032,
      "ĠFebruary": 5033,
      "Ġcong": 5034,
      "ĠEnvironment": 5035,
      "ĠBas": 5036,
      "Ġvoice": 5037,
      "Ġsexual": 5038,
      "Ġrac": 5039,
      "Ġbud": 5040,
      "54": 5041,
      "ĠBlack": 5042,
      "Ġrepresentation": 5043,
      "Ġcomment": 5044,
      "ĠThom": 5045,
      "Ġcalculated": 5046,
      "gypt": 5047,
      "63": 5048,
      "otes": 5049,
      "orage": 5050,
      "Ġlies": 5051,
      "Ġwinter": 5052,
      "ĠMark": 5053,
      "Ġmaintaining": 5054,
      "Ġisol": 5055,
      "Ġ(-": 5056,
      "Ġsav": 5057,
      "Ġcausing": 5058,
      "Ġ${\\": 5059,
      "Ġsaying": 5060,
      "Ġpp": 5061,
      "roy": 5062,
      "Ġcontract": 5063,
      "Ġattract": 5064,
      "Ġcarefully": 5065,
      "command": 5066,
      "Ġmoved": 5067,
      "Ġpret": 5068,
      "Ġign": 5069,
      "OU": 5070,
      "Ġperp": 5071,
      "Ġcultures": 5072,
      "Ġchoices": 5073,
      "Ġparty": 5074,
      "Ġidentified": 5075,
      "ĠCongress": 5076,
      "icular": 5077,
      "Ġcreation": 5078,
      "Ġencourage": 5079,
      "Ġnode": 5080,
      "Ġrh": 5081,
      "69": 5082,
      "Ġcareer": 5083,
      "ĠBr": 5084,
      "Ġpul": 5085,
      "59": 5086,
      "oke": 5087,
      "Ġstudying": 5088,
      "Ġprecise": 5089,
      "ĠSociety": 5090,
      "Ġeating": 5091,
      "AD": 5092,
      "Ġfalse": 5093,
      "semb": 5094,
      "Ġglass": 5095,
      "ux": 5096,
      "Ġcopy": 5097,
      "Ġphenomen": 5098,
      "ĠDon": 5099,
      "Ġfamiliar": 5100,
      "Ġdrive": 5101,
      ")$$": 5102,
      "Ġindu": 5103,
      "icated": 5104,
      "Ġmonit": 5105,
      "ael": 5106,
      "Ġvast": 5107,
      "Ġcycle": 5108,
      "ASA": 5109,
      "ĠEv": 5110,
      "urance": 5111,
      "ĠPeople": 5112,
      "72": 5113,
      "Ġintroduced": 5114,
      "lin": 5115,
      "ĠFound": 5116,
      "Ġopin": 5117,
      "====": 5118,
      "Ġfrequently": 5119,
      "Ġimproved": 5120,
      "Ġfixed": 5121,
      "Ġnor": 5122,
      "Ġdrawing": 5123,
      "Ġsymmet": 5124,
      "Ġemotions": 5125,
      "Ġlanguages": 5126,
      "Ġscore": 5127,
      "Ġobtained": 5128,
      "Ġreports": 5129,
      "Ġdomain": 5130,
      "--------------------------------": 5131,
      "Ġsugar": 5132,
      "asion": 5133,
      "Ġocean": 5134,
      "ocal": 5135,
      "ĠAge": 5136,
      "Ġrational": 5137,
      "Ġestimated": 5138,
      "Ġcolors": 5139,
      "Ġdrugs": 5140,
      "Ġoffice": 5141,
      "rier": 5142,
      "Ġnotice": 5143,
      "Ġscenari": 5144,
      "Ġexamine": 5145,
      "ĠMedic": 5146,
      "pen": 5147,
      "alt": 5148,
      "Ġmanage": 5149,
      "500": 5150,
      "ĠHome": 5151,
      ".\",": 5152,
      "pass": 5153,
      "ĠDNA": 5154,
      "ped": 5155,
      "Ġ###": 5156,
      "ĠDist": 5157,
      "anged": 5158,
      "ĠDavid": 5159,
      "{{": 5160,
      "^{-": 5161,
      "Ġlayer": 5162,
      "ĠChinese": 5163,
      "mathbb": 5164,
      "Ġclosed": 5165,
      "Ġsounds": 5166,
      "Ġcontinues": 5167,
      "ĠAssociation": 5168,
      "03": 5169,
      "Ġmeters": 5170,
      "what": 5171,
      "ĠTime": 5172,
      "ĠJames": 5173,
      "Ġdenomin": 5174,
      "Ġvoltage": 5175,
      "Ġrace": 5176,
      "Ġgender": 5177,
      "Ġcomplexity": 5178,
      "Ġhighlight": 5179,
      "Ġincreasingly": 5180,
      "rome": 5181,
      "reate": 5182,
      "52": 5183,
      "anish": 5184,
      "Ġgather": 5185,
      "Ġstaff": 5186,
      "ĠCollege": 5187,
      "Ġpark": 5188,
      "ĠSch": 5189,
      "Ġcovered": 5190,
      "Ġmeasured": 5191,
      "ormal": 5192,
      "Ġabsor": 5193,
      "Ġconsumption": 5194,
      "att": 5195,
      "ologists": 5196,
      "07": 5197,
      "Ġexpressed": 5198,
      "Ġminor": 5199,
      "Ġcollege": 5200,
      "Ġmix": 5201,
      "Ġparameters": 5202,
      "Ġbecoming": 5203,
      "Ġ2004": 5204,
      "Ġefficiency": 5205,
      "Ġclim": 5206,
      "Ġphysics": 5207,
      "akers": 5208,
      "Ġcreative": 5209,
      "Ġprices": 5210,
      "'.": 5211,
      "âĢ¦âĢ¦": 5212,
      "eries": 5213,
      "Ar": 5214,
      "ĠUnion": 5215,
      "Ġemissions": 5216,
      "Ġremove": 5217,
      "Ġtemperatures": 5218,
      "esson": 5219,
      "ĠLondon": 5220,
      "Ġsmooth": 5221,
      "Ġbusinesses": 5222,
      "Ġmale": 5223,
      "Ġclosely": 5224,
      "class": 5225,
      "Ġfavorite": 5226,
      "Ġheavy": 5227,
      "roduct": 5228,
      "ructure": 5229,
      "Ġplayed": 5230,
      "iders": 5231,
      "Ġshapes": 5232,
      "ey": 5233,
      "icit": 5234,
      "ints": 5235,
      "ogen": 5236,
      "Ġhear": 5237,
      "Ġleaving": 5238,
      "Ġillness": 5239,
      "Ġappreciate": 5240,
      "mark": 5241,
      "newcommand": 5242,
      "ulum": 5243,
      "Ġgarden": 5244,
      "Ġjournal": 5245,
      "Ġchart": 5246,
      "ructions": 5247,
      "encing": 5248,
      "heet": 5249,
      "iling": 5250,
      "New": 5251,
      "ï¿½": 5252,
      "Ġprepared": 5253,
      "En": 5254,
      "ĠRemember": 5255,
      "Ġmer": 5256,
      "elta": 5257,
      "ĠUN": 5258,
      "Ġdomin": 5259,
      "Ġhop": 5260,
      "Ġphase": 5261,
      "tes": 5262,
      "Ġpregn": 5263,
      "89": 5264,
      "bi": 5265,
      "ictionary": 5266,
      "ĠDisc": 5267,
      "Ġrelease": 5268,
      "Ġhit": 5269,
      "Ġexternal": 5270,
      "Ġpush": 5271,
      "ĠEgypt": 5272,
      "Ġvital": 5273,
      "Ġcampaign": 5274,
      "Ġperspective": 5275,
      "ogue": 5276,
      "Ġsales": 5277,
      "imeter": 5278,
      "Ġexperienced": 5279,
      "Ġbelieved": 5280,
      "ams": 5281,
      "ida": 5282,
      "Ġstation": 5283,
      "Ġslope": 5284,
      "poses": 5285,
      "Ġexcess": 5286,
      "gery": 5287,
      "Ġjoint": 5288,
      "Ġraise": 5289,
      "ĠAut": 5290,
      "ĠBoth": 5291,
      "Ġadvoc": 5292,
      "Ġexplained": 5293,
      "Ġsamples": 5294,
      "Ġconfidence": 5295,
      "Ġdram": 5296,
      "Ġmedicine": 5297,
      "vision": 5298,
      "Ġremov": 5299,
      "cohol": 5300,
      "Ġhorizont": 5301,
      "Ġsand": 5302,
      "ĠUp": 5303,
      "ny": 5304,
      "ĠWater": 5305,
      "Ġformal": 5306,
      "Ġimplementation": 5307,
      "ĠAC": 5308,
      "Ġthick": 5309,
      "Ġspl": 5310,
      "Ġgeneration": 5311,
      "Ð¾": 5312,
      "Ġnative": 5313,
      "ĠWestern": 5314,
      "Ġvirus": 5315,
      "Ġlabel": 5316,
      "Ġhomes": 5317,
      "bed": 5318,
      "Ġclick": 5319,
      "ĠAir": 5320,
      "Ġtrain": 5321,
      "Ġflo": 5322,
      "Ġviews": 5323,
      "DA": 5324,
      "atically": 5325,
      "Ġfocused": 5326,
      "arter": 5327,
      "related": 5328,
      "ros": 5329,
      "ressive": 5330,
      "Ġexistence": 5331,
      "Ġchurch": 5332,
      "Ġgene": 5333,
      "azing": 5334,
      "cript": 5335,
      "Ġcombined": 5336,
      "Ġrelation": 5337,
      "Ġnuclear": 5338,
      "anges": 5339,
      "za": 5340,
      "Ġfruit": 5341,
      "ĠFrance": 5342,
      "Ġdrawn": 5343,
      "Ġsecret": 5344,
      "ĠHIV": 5345,
      "while": 5346,
      "Ġslightly": 5347,
      "62": 5348,
      "Ġartists": 5349,
      "ially": 5350,
      "Ġshowing": 5351,
      "ithmetic": 5352,
      "04": 5353,
      "ules": 5354,
      "Ġgenerations": 5355,
      "sub": 5356,
      "Ġleads": 5357,
      "circ": 5358,
      "Ġotherwise": 5359,
      "Ġderivative": 5360,
      "Ġseconds": 5361,
      "ĠMor": 5362,
      "Ġselected": 5363,
      "Ġexperts": 5364,
      "Jo": 5365,
      "Ġindicate": 5366,
      "Ġunf": 5367,
      "ressed": 5368,
      "ĠTex": 5369,
      "Ġassume": 5370,
      "Ġkn": 5371,
      "Ġingred": 5372,
      "Ġlandscape": 5373,
      "pling": 5374,
      "arity": 5375,
      "US": 5376,
      "ords": 5377,
      "cosystem": 5378,
      "cers": 5379,
      "Ġcompare": 5380,
      "Ġinfinite": 5381,
      "enses": 5382,
      "Ġdepends": 5383,
      "73": 5384,
      "Ġflex": 5385,
      "ĠFurthermore": 5386,
      "ĠST": 5387,
      "Ġbacteria": 5388,
      "Ind": 5389,
      "Ġinvent": 5390,
      "Ġradio": 5391,
      "Ġfinally": 5392,
      "Ġmeant": 5393,
      "Ġreligion": 5394,
      "ĠJews": 5395,
      "ansion": 5396,
      "ossible": 5397,
      "Ġdie": 5398,
      "ĠJesus": 5399,
      "ml": 5400,
      "Ġfluid": 5401,
      "Ġconsidering": 5402,
      "mm": 5403,
      "Ġbatter": 5404,
      "oyal": 5405,
      "Ġtouch": 5406,
      "Ġfeedback": 5407,
      "})": 5408,
      "Ġdream": 5409,
      "Ġjustice": 5410,
      "Ġmere": 5411,
      "igma": 5412,
      "ĠGermany": 5413,
      "Ġgall": 5414,
      "Ġreact": 5415,
      "gu": 5416,
      "Ġradiation": 5417,
      "à¥": 5418,
      "Ġreaction": 5419,
      "hetic": 5420,
      "ĠQuestions": 5421,
      "Â·": 5422,
      "53": 5423,
      "Ġcards": 5424,
      "Ġvision": 5425,
      "ĠMoreover": 5426,
      "ĠIdent": 5427,
      "Ġknew": 5428,
      "apping": 5429,
      "ĠPaul": 5430,
      "Ġtried": 5431,
      "DF": 5432,
      "ithms": 5433,
      "oo": 5434,
      "Ġarm": 5435,
      "incip": 5436,
      "ologist": 5437,
      "Ġdeviation": 5438,
      "Ġawareness": 5439,
      "xic": 5440,
      "ĠEvery": 5441,
      "ĠSpace": 5442,
      "Ġreleased": 5443,
      "gal": 5444,
      "ĠProblem": 5445,
      "Ġseeking": 5446,
      "ĠImagine": 5447,
      "ups": 5448,
      "using": 5449,
      "Ġguess": 5450,
      "ĠSl": 5451,
      "Ġbreast": 5452,
      "quad": 5453,
      "Ġmajority": 5454,
      "ocation": 5455,
      "Ġrespectively": 5456,
      "gr": 5457,
      "Ġ##": 5458,
      "Ġimplications": 5459,
      "Ġec": 5460,
      "Ġmetal": 5461,
      "Ġfacilit": 5462,
      "Ġinverse": 5463,
      "Ġfaster": 5464,
      "Ġpossess": 5465,
      "ĠDem": 5466,
      "Ġ2003": 5467,
      "itage": 5468,
      "Ġspot": 5469,
      "vec": 5470,
      "ĠMary": 5471,
      "Ġunknown": 5472,
      "Ġprocessing": 5473,
      "ville": 5474,
      "aughter": 5475,
      "Ġfine": 5476,
      "Ġarrange": 5477,
      "ĠReview": 5478,
      "box": 5479,
      "Ġalign": 5480,
      "gon": 5481,
      "Ġprimarily": 5482,
      "ING": 5483,
      "Ġlooked": 5484,
      "Ġgrade": 5485,
      "Ġchosen": 5486,
      "Ġship": 5487,
      "Ġ]": 5488,
      "Ġpairs": 5489,
      "Ġexpressions": 5490,
      "Ġdatab": 5491,
      "ĠCourse": 5492,
      "De": 5493,
      "Ġparticles": 5494,
      "Ġincred": 5495,
      "Ġreached": 5496,
      "ĠGreek": 5497,
      "igration": 5498,
      "74": 5499,
      "ĠPal": 5500,
      "essel": 5501,
      "ulf": 5502,
      "ĠPublic": 5503,
      "Ġthr": 5504,
      "kes": 5505,
      "ĠJapanese": 5506,
      "pers": 5507,
      "ĠAdd": 5508,
      "Ġbuildings": 5509,
      "Ġmilk": 5510,
      "being": 5511,
      "Ġvul": 5512,
      "ÂłÂłÂłÂłÂłÂłÂł": 5513,
      "Note": 5514,
      "ĠBC": 5515,
      "Ġhandle": 5516,
      "oma": 5517,
      "ferent": 5518,
      "ĠSolution": 5519,
      "Ġhealthcare": 5520,
      "gl": 5521,
      "tion": 5522,
      "ĠAM": 5523,
      "Ġserved": 5524,
      "ifies": 5525,
      "Ġdiabetes": 5526,
      "Ġtrip": 5527,
      "ĠFran": 5528,
      "Ġtwice": 5529,
      "ĠMars": 5530,
      "ĠIntroduction": 5531,
      "ĠSocial": 5532,
      "test": 5533,
      "Ġpurposes": 5534,
      "Ġcloser": 5535,
      "ptions": 5536,
      "Ġmaybe": 5537,
      "Ġinstitutions": 5538,
      "Ġacademic": 5539,
      "eline": 5540,
      "ĠDire": 5541,
      "Ġdecades": 5542,
      "ometry": 5543,
      "Ġthemes": 5544,
      "Ġstorm": 5545,
      "Ġhair": 5546,
      "OS": 5547,
      "Ġfert": 5548,
      "Ġà¤": 5549,
      "Ġgreatest": 5550,
      "EM": 5551,
      "Ġsynt": 5552,
      "Ġamounts": 5553,
      "mp": 5554,
      "Ġsentences": 5555,
      "Ġinfect": 5556,
      "Ġconducted": 5557,
      "ĠPlease": 5558,
      "ĠHave": 5559,
      "ĠEnergy": 5560,
      "Ġpal": 5561,
      "Ġmultiplication": 5562,
      "Ġlegis": 5563,
      "Ġpreviously": 5564,
      "rain": 5565,
      "Ġevaluate": 5566,
      "ĠProject": 5567,
      "Ġframew": 5568,
      "ĠAlgebra": 5569,
      "nam": 5570,
      "Cons": 5571,
      "Ġreader": 5572,
      "aran": 5573,
      "ĠMathematics": 5574,
      "Pl": 5575,
      "Ġrecognize": 5576,
      "]:": 5577,
      "pping": 5578,
      "Ġarticles": 5579,
      "Ġparticipants": 5580,
      "Ġgrad": 5581,
      "Ġobvious": 5582,
      "Ġkeeping": 5583,
      "Ġconsistent": 5584,
      "Sub": 5585,
      "Ġiron": 5586,
      "ĠMiss": 5587,
      "unately": 5588,
      "Ġunderlying": 5589,
      "Ġ//": 5590,
      "Ġspiritual": 5591,
      "Ans": 5592,
      "Ġsend": 5593,
      "Ġaudience": 5594,
      "}_{": 5595,
      "Ġsquares": 5596,
      "ĠService": 5597,
      "ĠPower": 5598,
      "ago": 5599,
      "ĠTri": 5600,
      ")+": 5601,
      "vis": 5602,
      "Ġperspectives": 5603,
      "Ġstorage": 5604,
      "anted": 5605,
      "Ġstatistics": 5606,
      "Ġaren": 5607,
      "Ġwidely": 5608,
      "Ġju": 5609,
      "Ġdiversity": 5610,
      "Ġyield": 5611,
      "Ġseek": 5612,
      "ĠHuman": 5613,
      "Ġacceleration": 5614,
      "Ġtechnical": 5615,
      "71": 5616,
      "tan": 5617,
      "Ġmo": 5618,
      "ĠPers": 5619,
      "Ġconversion": 5620,
      "vironments": 5621,
      "Ġinformed": 5622,
      "ĠRober": 5623,
      "arp": 5624,
      "Ġremoved": 5625,
      "Why": 5626,
      "Ġtruly": 5627,
      "road": 5628,
      "Ġanalyze": 5629,
      "ĠSun": 5630,
      "Ġstrict": 5631,
      "Ġmel": 5632,
      "ĠElect": 5633,
      "iled": 5634,
      "Ġindeed": 5635,
      "((": 5636,
      "Ġideal": 5637,
      "Ġhidden": 5638,
      "Ġcast": 5639,
      "Ġstim": 5640,
      "Ġmovements": 5641,
      "Ġdetailed": 5642,
      "partial": 5643,
      "Ġbaby": 5644,
      "Ġgrand": 5645,
      "hand": 5646,
      "Ġ48": 5647,
      "ishes": 5648,
      "Ġindicates": 5649,
      "Ġsubtract": 5650,
      "cular": 5651,
      "orical": 5652,
      "ĠConf": 5653,
      "Ġsummary": 5654,
      "win": 5655,
      "down": 5656,
      "ingly": 5657,
      "ĠMake": 5658,
      "Ġhappened": 5659,
      "Ġpun": 5660,
      "Ġpromoting": 5661,
      "Ġpros": 5662,
      "Ġecosystem": 5663,
      "Ġ500": 5664,
      "ĠAustralia": 5665,
      "Ġhyper": 5666,
      "xygen": 5667,
      "Ġple": 5668,
      "Ġcollaboration": 5669,
      "Ġhelpful": 5670,
      "ĠTexas": 5671,
      "Ġproposed": 5672,
      "Ġsubsequ": 5673,
      "och": 5674,
      "Ġmeasurement": 5675,
      "Ġliber": 5676,
      "Ġpowers": 5677,
      "My": 5678,
      "Ġchann": 5679,
      "Ġpotentially": 5680,
      "They": 5681,
      "Ġmanip": 5682,
      "Ġexcell": 5683,
      "ĠInternet": 5684,
      "Ġphysic": 5685,
      "Ġraised": 5686,
      "Ġvertical": 5687,
      "Ġinner": 5688,
      "rror": 5689,
      "ĠSk": 5690,
      "OL": 5691,
      "uilding": 5692,
      "no": 5693,
      "Ġviolence": 5694,
      "ĠIN": 5695,
      "Ġliquid": 5696,
      "Ġrecip": 5697,
      "fl": 5698,
      "Ġcogn": 5699,
      "ĠFin": 5700,
      "ĠDevelopment": 5701,
      "Ġlinked": 5702,
      "Ġterrit": 5703,
      "Ġconvent": 5704,
      "Ġreferred": 5705,
      "making": 5706,
      "Ġ75": 5707,
      "Ġsong": 5708,
      "Ġvectors": 5709,
      "Ġperformed": 5710,
      "Sim": 5711,
      "Ġstars": 5712,
      "Ġflood": 5713,
      "itz": 5714,
      "Ġerrors": 5715,
      "++": 5716,
      "Ġinh": 5717,
      "Ġnone": 5718,
      "imensional": 5719,
      "Ġholds": 5720,
      "Ġindustrial": 5721,
      "rum": 5722,
      "Ġbed": 5723,
      "tical": 5724,
      "Ġisland": 5725,
      "Ġcarried": 5726,
      "ðĿĲ": 5727,
      "Ġknows": 5728,
      "Ġrevolution": 5729,
      "ĠWorks": 5730,
      "Ġnoted": 5731,
      "Ġcultiv": 5732,
      "Ġclinical": 5733,
      "Ġassist": 5734,
      "Ġelectricity": 5735,
      "Ġoffering": 5736,
      "ĠGeorge": 5737,
      "Ġresponsibility": 5738,
      "Ġbinary": 5739,
      "Ġ@": 5740,
      "Ġaw": 5741,
      "isher": 5742,
      "Ġuniverse": 5743,
      "Ġoptim": 5744,
      "Ġcustomers": 5745,
      "ĠCouncil": 5746,
      "Ġbrief": 5747,
      "Ġsubjects": 5748,
      "Ġfacts": 5749,
      "icy": 5750,
      "ĠMass": 5751,
      "ĠSecond": 5752,
      "Ġinsect": 5753,
      "Chapter": 5754,
      "Ġtreated": 5755,
      "Ġcalculator": 5756,
      "plicated": 5757,
      "ln": 5758,
      "Ġperiods": 5759,
      "Ġconsists": 5760,
      "Ġongoing": 5761,
      "Ġwealth": 5762,
      "ĠÂ·": 5763,
      "Ġfaced": 5764,
      "Ġfif": 5765,
      "uracy": 5766,
      "51": 5767,
      "ĠAD": 5768,
      "Ġspeech": 5769,
      "asp": 5770,
      "ĠEngine": 5771,
      "97": 5772,
      "Ġworldwide": 5773,
      "Ġexplanation": 5774,
      "Ġultimately": 5775,
      "oul": 5776,
      "Ġwhom": 5777,
      "Ġcompleted": 5778,
      "ĠPage": 5779,
      "Le": 5780,
      "Ġtens": 5781,
      "icks": 5782,
      "Ġhuge": 5783,
      "}}\\": 5784,
      "61": 5785,
      "])": 5786,
      "Ġhousehold": 5787,
      "Ġwire": 5788,
      "Given": 5789,
      "then": 5790,
      "ĠThink": 5791,
      "Ġtrends": 5792,
      "ipped": 5793,
      "Ġfailure": 5794,
      "Ġinvestment": 5795,
      "Ġadvantage": 5796,
      "rem": 5797,
      "ĠCath": 5798,
      "Ġalt": 5799,
      "Ðµ": 5800,
      "Ġdiss": 5801,
      "Ġhypothesis": 5802,
      "Ġenvironments": 5803,
      "Ġoccurred": 5804,
      "Ġtum": 5805,
      "Ġbudget": 5806,
      "ĠIslam": 5807,
      "faces": 5808,
      "ĠNASA": 5809,
      "Ġdestroy": 5810,
      "Ġcomprehensive": 5811,
      "ias": 5812,
      "Ġtells": 5813,
      "Ġclassroom": 5814,
      "ĠSign": 5815,
      "Ġmissing": 5816,
      "Ġresist": 5817,
      "Ġtraditions": 5818,
      "Ġcareful": 5819,
      "ĠMuseum": 5820,
      "Ġmouth": 5821,
      "zy": 5822,
      "Ġprinciple": 5823,
      "riction": 5824,
      "Ġ300": 5825,
      "Ġinnovative": 5826,
      "ĠBay": 5827,
      "Ġapart": 5828,
      "Ġreb": 5829,
      "Ġmanner": 5830,
      "}+": 5831,
      "!!": 5832,
      "ogle": 5833,
      "rog": 5834,
      "Ġcenturies": 5835,
      "Ġextract": 5836,
      "Ġinterview": 5837,
      "umin": 5838,
      "ours": 5839,
      "Ġsuggested": 5840,
      "well": 5841,
      "Ġstarts": 5842,
      "ĠAP": 5843,
      "Ġquantity": 5844,
      "Ġemployees": 5845,
      "Ġbattle": 5846,
      "orrect": 5847,
      "Ġflat": 5848,
      "Ġstatements": 5849,
      "Ġelev": 5850,
      "Ġtissue": 5851,
      "ĠCD": 5852,
      "axis": 5853,
      "Ġtiny": 5854,
      "itness": 5855,
      "cm": 5856,
      "inger": 5857,
      "ĠMexico": 5858,
      "Ġplus": 5859,
      "Ġprofessor": 5860,
      "do": 5861,
      "Ġparameter": 5862,
      "Ġdiscovery": 5863,
      "nce": 5864,
      "pat": 5865,
      "Ġbegins": 5866,
      "aker": 5867,
      "Ġremained": 5868,
      "Tr": 5869,
      "riage": 5870,
      "Ġdesired": 5871,
      "RI": 5872,
      "Ġprocedure": 5873,
      "Ġgenes": 5874,
      "itors": 5875,
      "othing": 5876,
      "Ð°": 5877,
      "ira": 5878,
      "dered": 5879,
      "Ġ1000": 5880,
      "Ġpi": 5881,
      "Ġ^": 5882,
      "CC": 5883,
      "ĠFam": 5884,
      "ĠâĨĴ": 5885,
      "Ġvulner": 5886,
      "leg": 5887,
      "ĠInformation": 5888,
      "SS": 5889,
      "Ġbrother": 5890,
      "Ġaid": 5891,
      "Ġguidelines": 5892,
      "Ġelectrical": 5893,
      "Ġcapable": 5894,
      "ĠTim": 5895,
      "hent": 5896,
      "Ġdisorders": 5897,
      "Ġcoefficient": 5898,
      "Ġtriangles": 5899,
      "Ġnutri": 5900,
      "Ġfiles": 5901,
      "writ": 5902,
      "Ġroles": 5903,
      "Ġpaint": 5904,
      "berg": 5905,
      "oughly": 5906,
      "Ġvessel": 5907,
      "cest": 5908,
      "ails": 5909,
      "ĠSimilarly": 5910,
      "Ġfilm": 5911,
      "Ġobservations": 5912,
      "ĠCommon": 5913,
      "Ġdelve": 5914,
      "Ġcoordinates": 5915,
      "ppose": 5916,
      "Ġske": 5917,
      "nic": 5918,
      "Ġintended": 5919,
      "stract": 5920,
      "EL": 5921,
      "ĠRich": 5922,
      "Ġcomputers": 5923,
      "Ġhunt": 5924,
      "Ġoffic": 5925,
      "Ġsyn": 5926,
      "ractions": 5927,
      "Ġwaves": 5928,
      "ĠMart": 5929,
      "Ġtransformation": 5930,
      "Ġshif": 5931,
      "Ġsell": 5932,
      "Ġcircumst": 5933,
      "uing": 5934,
      "Ġsupported": 5935,
      "Ġturns": 5936,
      "Ġtalking": 5937,
      "Ġnan": 5938,
      "ĠAB": 5939,
      "Ġoxygen": 5940,
      "Ġlimits": 5941,
      "Ġcompl": 5942,
      "ĠLibr": 5943,
      "Ġextremely": 5944,
      "step": 5945,
      "84": 5946,
      "Ġplayer": 5947,
      "ĠLord": 5948,
      "ĠBen": 5949,
      "Ġmagnetic": 5950,
      "ĠNote": 5951,
      "Ã¢": 5952,
      "Ġsecure": 5953,
      "ctic": 5954,
      "ilater": 5955,
      "position": 5956,
      "Ġbeliefs": 5957,
      "Ġgod": 5958,
      "param": 5959,
      "Ġlogic": 5960,
      "Ġloop": 5961,
      "Ġreturned": 5962,
      "Ġrig": 5963,
      "Ġrequest": 5964,
      "Ġprofessionals": 5965,
      "uous": 5966,
      "iday": 5967,
      "Ġtransportation": 5968,
      "ague": 5969,
      "Ġ33": 5970,
      "Ġgeometry": 5971,
      "ĠOF": 5972,
      "ĠLou": 5973,
      "ĠExper": 5974,
      "Ġauthority": 5975,
      "Ġphone": 5976,
      "ogether": 5977,
      "Ġinspir": 5978,
      "Ġastron": 5979,
      "Ġdisorder": 5980,
      "ellect": 5981,
      "struct": 5982,
      "Ġtut": 5983,
      "ĠGovernment": 5984,
      "Ġnetworks": 5985,
      "Ġrepeated": 5986,
      "ĠIsland": 5987,
      "ĠMount": 5988,
      "Ġnarrative": 5989,
      "Ġexploration": 5990,
      "ÂĿ": 5991,
      "ĠSuch": 5992,
      "Ġmoves": 5993,
      "\\$": 5994,
      "Ġtal": 5995,
      "Have": 5996,
      "import": 5997,
      "Ġasking": 5998,
      "wood": 5999,
      "ĠTheorem": 6000,
      "Ġremark": 6001,
      "Therefore": 6002,
      "}$.": 6003,
      "Ġplayers": 6004,
      ".;": 6005,
      "long": 6006,
      "Ġregression": 6007,
      "Ġhol": 6008,
      "acific": 6009,
      "Ġalcohol": 6010,
      ")}": 6011,
      "Ġimpacts": 6012,
      "rich": 6013,
      "ĠFore": 6014,
      "stood": 6015,
      "ĠLife": 6016,
      "erving": 6017,
      "Ġformation": 6018,
      "Ġantib": 6019,
      "Ġassessment": 6020,
      "ĠÂłĠÂłĠÂłĠÂł": 6021,
      "Ġ2001": 6022,
      "Ġprogramming": 6023,
      "space": 6024,
      "Ġ2002": 6025,
      "Ġcorrelation": 6026,
      "Ġstatistical": 6027,
      "ander": 6028,
      "ĠCirc": 6029,
      "Ġscores": 6030,
      "Ġincorporating": 6031,
      "ĠInf": 6032,
      ".'": 6033,
      "ĠBel": 6034,
      "Ġtaught": 6035,
      "Ġconsult": 6036,
      "Ġhorizontal": 6037,
      "racing": 6038,
      "Ġagg": 6039,
      "Ġintric": 6040,
      "Ġblog": 6041,
      "ĠSen": 6042,
      "Ġkilled": 6043,
      "ĠSpanish": 6044,
      "ĠHol": 6045,
      "Ġrein": 6046,
      "Ġnations": 6047,
      "Ġfarmers": 6048,
      "ĠOrgan": 6049,
      "Ġprem": 6050,
      "rieved": 6051,
      "Ġlocations": 6052,
      "Ġfloor": 6053,
      "state": 6054,
      "ĠOh": 6055,
      "Ġdiscussed": 6056,
      "unte": 6057,
      "Ġneighbor": 6058,
      "Ġstock": 6059,
      "Ġwaters": 6060,
      "Ġpretty": 6061,
      "ometric": 6062,
      "Ġtro": 6063,
      "angular": 6064,
      "EE": 6065,
      "Ġfoundation": 6066,
      "Ġeggs": 6067,
      "Finally": 6068,
      "Ġorganic": 6069,
      "Ġhappy": 6070,
      "Ġsubstant": 6071,
      "Ġmagnitude": 6072,
      "inent": 6073,
      "Ġourselves": 6074,
      "Ġsnow": 6075,
      "astern": 6076,
      "Ġproportion": 6077,
      "Ġkid": 6078,
      "=\"": 6079,
      "Ġmixed": 6080,
      "ĠDesign": 6081,
      "ĠStudy": 6082,
      "Ġvirtual": 6083,
      "Ġnavigate": 6084,
      "but": 6085,
      "Ġfill": 6086,
      "duct": 6087,
      "Ġcars": 6088,
      "Ġportion": 6089,
      "vals": 6090,
      "rd": 6091,
      "Ġacknow": 6092,
      "****": 6093,
      "Ġpuzz": 6094,
      "ĠGr": 6095,
      "Ġshift": 6096,
      "max": 6097,
      "orrow": 6098,
      "Ġrenew": 6099,
      "net": 6100,
      "Ġowners": 6101,
      "Ġ``": 6102,
      "Ġcreates": 6103,
      "fall": 6104,
      "ĠFood": 6105,
      "Ġwasn": 6106,
      "ourage": 6107,
      "field": 6108,
      "ĠProfess": 6109,
      "Ġexamining": 6110,
      "orph": 6111,
      "Ġbright": 6112,
      "Ġenable": 6113,
      "Ġwest": 6114,
      "Ġchain": 6115,
      "Ġexchange": 6116,
      "Ġoperating": 6117,
      "eria": 6118,
      "Ġ;": 6119,
      "Ġguidance": 6120,
      "Ġinequality": 6121,
      "ĠHam": 6122,
      "ounced": 6123,
      "Ġkept": 6124,
      "Ġoffered": 6125,
      "Ġdirector": 6126,
      "active": 6127,
      "93": 6128,
      "Ġmorning": 6129,
      "Ġworry": 6130,
      "Ġapparent": 6131,
      "ĠMal": 6132,
      "Ġtransition": 6133,
      "ĠMiddle": 6134,
      "Ġselection": 6135,
      "Ġdatas": 6136,
      "][": 6137,
      "Ġdiameter": 6138,
      "Ġequals": 6139,
      "Ġenab": 6140,
      "Ġamb": 6141,
      "atively": 6142,
      "Ġinteractions": 6143,
      "Ġque": 6144,
      "data": 6145,
      "Ġgenerated": 6146,
      "TS": 6147,
      "Ġthousand": 6148,
      "ĠVirgin": 6149,
      "Use": 6150,
      "urrent": 6151,
      "Ġimmune": 6152,
      "Ġcoal": 6153,
      "ÂĿÂ": 6154,
      "xiety": 6155,
      "ifferent": 6156,
      "ĠRepublic": 6157,
      "Ġthin": 6158,
      "riculum": 6159,
      "west": 6160,
      "reed": 6161,
      "iate": 6162,
      "Ġunex": 6163,
      "Ġrapidly": 6164,
      "Ġbone": 6165,
      "Ġdriving": 6166,
      "Ġtherm": 6167,
      "Ġuniform": 6168,
      "ria": 6169,
      "ĠNov": 6170,
      "Rem": 6171,
      "Ġspend": 6172,
      "Su": 6173,
      "py": 6174,
      "Ġforced": 6175,
      "Ġgirls": 6176,
      "ĠNet": 6177,
      "Ġrecommended": 6178,
      "ĠLike": 6179,
      "Your": 6180,
      "Ġreduction": 6181,
      "Ġpersons": 6182,
      "Ġmarked": 6183,
      "Ġquadratic": 6184,
      "unk": 6185,
      "Ġdecide": 6186,
      "Ġwants": 6187,
      "Ġmort": 6188,
      "phi": 6189,
      "Next": 6190,
      "Ġgoods": 6191,
      "Ġmoral": 6192,
      "herent": 6193,
      "Ġwidth": 6194,
      "87": 6195,
      "92": 6196,
      "Ġmotor": 6197,
      "ĠCivil": 6198,
      "Ġgrass": 6199,
      "Ġsuitable": 6200,
      "See": 6201,
      "Ġderived": 6202,
      "Ġgeometric": 6203,
      "ĠChildren": 6204,
      "Ã¡": 6205,
      "Ġboundaries": 6206,
      "Ġ1990": 6207,
      "Ġcredit": 6208,
      "ĠNone": 6209,
      "Ġpaid": 6210,
      "Ġscholars": 6211,
      "Ġpictures": 6212,
      "ĠWhite": 6213,
      "ĠBook": 6214,
      "ĠPri": 6215,
      "Ġarguments": 6216,
      "Ġdedicated": 6217,
      "Ġshaping": 6218,
      "Ġregional": 6219,
      "Then": 6220,
      ")-": 6221,
      "Ġnutrition": 6222,
      "ache": 6223,
      "Ġcollected": 6224,
      "Ġcatch": 6225,
      "ĠThomas": 6226,
      "Ġaddressing": 6227,
      "Cont": 6228,
      "sm": 6229,
      "Ġdocuments": 6230,
      "ĠTop": 6231,
      "Ġpresident": 6232,
      "Ġlic": 6233,
      "Ġsports": 6234,
      "flow": 6235,
      "Ġfirm": 6236,
      "ĠJe": 6237,
      "Ġdiagram": 6238,
      "ĠSmith": 6239,
      "Ġcandid": 6240,
      "agraph": 6241,
      "Ġsouthern": 6242,
      "ĠTechnology": 6243,
      "Ġahead": 6244,
      "ĠAnother": 6245,
      "Ġuncertain": 6246,
      "Ġprompt": 6247,
      "Ġband": 6248,
      "Ġclaims": 6249,
      "94": 6250,
      "Ġfostering": 6251,
      "Ġshop": 6252,
      "number": 6253,
      "Ġaccuracy": 6254,
      "Ġdynamic": 6255,
      "level": 6256,
      "Ġconcise": 6257,
      "world": 6258,
      "venue": 6259,
      "ĠNews": 6260,
      "Ġstudied": 6261,
      "ĠCentral": 6262,
      "ĠPen": 6263,
      "ĠJul": 6264,
      "Ġmillions": 6265,
      "ĠExamples": 6266,
      "Ġkinds": 6267,
      "Americ": 6268,
      "^{\\": 6269,
      "ĠLearning": 6270,
      "Ġadvice": 6271,
      "rics": 6272,
      "Ġmedium": 6273,
      "Ġdx": 6274,
      "ĠMethod": 6275,
      "Ġopening": 6276,
      "ĠWhich": 6277,
      "!\"": 6278,
      "nel": 6279,
      "Ġcalculations": 6280,
      "ola": 6281,
      "Ġdiscrim": 6282,
      "Ġwindow": 6283,
      "Ġsections": 6284,
      "incipal": 6285,
      "ait": 6286,
      "return": 6287,
      "icious": 6288,
      "gments": 6289,
      "ĠLatin": 6290,
      "chers": 6291,
      "Ġvictim": 6292,
      "Ġthor": 6293,
      "Ġaccompl": 6294,
      "ĠQue": 6295,
      "Ġcustomer": 6296,
      "ĠGroup": 6297,
      "Ġofficials": 6298,
      "---": 6299,
      "Ġsurgery": 6300,
      "Ġlatest": 6301,
      "Ġsettings": 6302,
      "Ġproperly": 6303,
      "fit": 6304,
      "Ġdrop": 6305,
      "rons": 6306,
      "Ġtrial": 6307,
      "ultane": 6308,
      "Ġamazing": 6309,
      "Ġassistance": 6310,
      "la": 6311,
      "`,": 6312,
      "')": 6313,
      "Ġdepression": 6314,
      "Ġrecon": 6315,
      "Ġmonitoring": 6316,
      "oking": 6317,
      "valu": 6318,
      "ĠManagement": 6319,
      "ĠFoundation": 6320,
      "Ġseed": 6321,
      "ĠVari": 6322,
      "ulating": 6323,
      "Ġeast": 6324,
      "ĠFlor": 6325,
      "Ġtitle": 6326,
      "MS": 6327,
      "ya": 6328,
      "ĠMean": 6329,
      "ĠMedical": 6330,
      "Ġentirely": 6331,
      "top": 6332,
      "Ġswitch": 6333,
      "bar": 6334,
      "Ġsymbols": 6335,
      "lamb": 6336,
      "Ġserves": 6337,
      "Ġmanufacture": 6338,
      "atever": 6339,
      "Ġneighb": 6340,
      "ki": 6341,
      "Ġfocusing": 6342,
      "Ġgal": 6343,
      "Using": 6344,
      "arah": 6345,
      "Ġconvey": 6346,
      "View": 6347,
      "ĠMain": 6348,
      "Ġdenominator": 6349,
      "CO": 6350,
      "ura": 6351,
      "Ġenem": 6352,
      "icing": 6353,
      "ĠYear": 6354,
      "ĠAnalysis": 6355,
      "Ġsegment": 6356,
      "Ġintelligence": 6357,
      "Ġtraffic": 6358,
      "Ġuns": 6359,
      "Ġtypical": 6360,
      "::": 6361,
      "Ġvent": 6362,
      "Ġreson": 6363,
      "Ġyellow": 6364,
      "Ġdemonstrate": 6365,
      "Ġcere": 6366,
      "Ġnecessarily": 6367,
      "van": 6368,
      "dden": 6369,
      "Ġdimensions": 6370,
      "amma": 6371,
      "Ġjoin": 6372,
      "Ġbird": 6373,
      "Ġwet": 6374,
      "lines": 6375,
      "86": 6376,
      "Ġstick": 6377,
      "Ġdescribes": 6378,
      "Ġstruggle": 6379,
      "lambda": 6380,
      "rastructure": 6381,
      "ribed": 6382,
      "Ġitem": 6383,
      "ypes": 6384,
      "Ġconversation": 6385,
      "Ġmeasurements": 6386,
      "Ġintegration": 6387,
      "ĠCourt": 6388,
      "lig": 6389,
      "ĠDel": 6390,
      "Ġstret": 6391,
      "ĠHen": 6392,
      "Ġdistingu": 6393,
      "ĠAtl": 6394,
      "Ġimproving": 6395,
      "Ġoutcome": 6396,
      "rays": 6397,
      "dimensional": 6398,
      "Ġpeak": 6399,
      "Ġ120": 6400,
      "ĠWho": 6401,
      "othe": 6402,
      "ĠArea": 6403,
      "ĠLog": 6404,
      "Ġexpansion": 6405,
      "Stud": 6406,
      "Ġbow": 6407,
      "Ġlinks": 6408,
      "Ġgar": 6409,
      "ĠPort": 6410,
      "Ġhundreds": 6411,
      "Ġ$(": 6412,
      "ado": 6413,
      "Ġfiction": 6414,
      "Ġtheore": 6415,
      "ĠArab": 6416,
      "ĠKeep": 6417,
      "ij": 6418,
      "Ġnu": 6419,
      "Ġimprovement": 6420,
      "Ġinstruction": 6421,
      "Ġmagic": 6422,
      "Ġtables": 6423,
      "ĠOld": 6424,
      "Ġnorthern": 6425,
      "fee": 6426,
      "ĠGiven": 6427,
      "âĢĿ.": 6428,
      "/(": 6429,
      "endicular": 6430,
      "Ġmit": 6431,
      "ota": 6432,
      "ĠTur": 6433,
      "Ġobjective": 6434,
      "Ġtips": 6435,
      "Ġ&=": 6436,
      "Ġmyth": 6437,
      "ĠCheck": 6438,
      "Ġdoor": 6439,
      "$$.": 6440,
      "âĤ¬": 6441,
      "Ġshad": 6442,
      "Ġwife": 6443,
      "ĠBer": 6444,
      "ĠJud": 6445,
      "Ġresidents": 6446,
      "Ġdiscussions": 6447,
      ")*": 6448,
      "ĠPacific": 6449,
      "agues": 6450,
      "ĠFigure": 6451,
      "Ġthread": 6452,
      "Ġfort": 6453,
      "ĠMac": 6454,
      "Ġpositions": 6455,
      "cules": 6456,
      "Ġvehicle": 6457,
      "Ġft": 6458,
      "Ġhospital": 6459,
      "Our": 6460,
      "\"}}": 6461,
      "Ġframe": 6462,
      "how": 6463,
      "Ġcalculation": 6464,
      "Ġinstrument": 6465,
      "Ġfoss": 6466,
      "olf": 6467,
      "ĠJer": 6468,
      "Ġnearby": 6469,
      "Ġmyst": 6470,
      "Ġknowing": 6471,
      "Ġconstra": 6472,
      "Ġcircumstances": 6473,
      "Ġmeat": 6474,
      "Ġ34": 6475,
      "den": 6476,
      "Ġsmart": 6477,
      "Ġsudden": 6478,
      "Ġelimin": 6479,
      "Ġtexts": 6480,
      "Ġparties": 6481,
      "ĠWind": 6482,
      "Ġoverl": 6483,
      "color": 6484,
      "rations": 6485,
      "oose": 6486,
      "never": 6487,
      "ĠCam": 6488,
      "Ġancest": 6489,
      "Many": 6490,
      "ĠRobert": 6491,
      "Ġbeauty": 6492,
      "Ġdecrease": 6493,
      "Ġsubs": 6494,
      "Ġsatell": 6495,
      "Ġproceed": 6496,
      "Ġjobs": 6497,
      "Ġmode": 6498,
      "}}$": 6499,
      "Ġgovernments": 6500,
      "ĠNumbers": 6501,
      "ĠRad": 6502,
      "ĠAcadem": 6503,
      "Ġpollution": 6504,
      "CD": 6505,
      "Ġring": 6506,
      "ĠCarol": 6507,
      "Ġprocedures": 6508,
      "anguage": 6509,
      "Ġexposed": 6510,
      "Ġimpossible": 6511,
      "81": 6512,
      "ĠAsia": 6513,
      "ĠWrite": 6514,
      "uls": 6515,
      "luding": 6516,
      "Ġseemed": 6517,
      "Ġstone": 6518,
      "Ġleader": 6519,
      "Ġyouth": 6520,
      "ĠVis": 6521,
      "SA": 6522,
      "lamm": 6523,
      "bert": 6524,
      "Ġbroader": 6525,
      "IL": 6526,
      "Ġkilog": 6527,
      "orous": 6528,
      "iosity": 6529,
      "rox": 6530,
      "ĠEconom": 6531,
      "Before": 6532,
      "Ġingredients": 6533,
      "Ġnarrow": 6534,
      "ee": 6535,
      "ĠMem": 6536,
      "Ġtreatments": 6537,
      "ĠValue": 6538,
      "band": 6539,
      "usions": 6540,
      "mu": 6541,
      "Conclusion": 6542,
      "Ġusage": 6543,
      "Ġbehaviors": 6544,
      "Ġacts": 6545,
      "('": 6546,
      "ĠAND": 6547,
      "Ġsusp": 6548,
      "Ġwalls": 6549,
      "roph": 6550,
      "Ġexcellent": 6551,
      "Ġintellect": 6552,
      "Ġremind": 6553,
      "ĠĠĠĠĠĠĠĠĠĠĠĠĠĠĠ": 6554,
      "ĠMulti": 6555,
      "Not": 6556,
      "Ġburn": 6557,
      "Ġperm": 6558,
      "apes": 6559,
      "string": 6560,
      "ĠEst": 6561,
      "Ġdescription": 6562,
      "itudes": 6563,
      "Pr": 6564,
      "tenance": 6565,
      "dy": 6566,
      "Ġseeds": 6567,
      "Ġprison": 6568,
      "Ġattend": 6569,
      "jection": 6570,
      "Ġmeaningful": 6571,
      "yles": 6572,
      "Ġcup": 6573,
      "orter": 6574,
      "ĠFinally": 6575,
      "Ġabilities": 6576,
      "ĠPhil": 6577,
      "Ġunderstood": 6578,
      "Ġthanks": 6579,
      "ificial": 6580,
      "Posts": 6581,
      "Ġcertainly": 6582,
      "ĠGet": 6583,
      "free": 6584,
      "ĠStr": 6585,
      "ĠKnow": 6586,
      "ensus": 6587,
      "Ġshel": 6588,
      "oding": 6589,
      "isdom": 6590,
      "Ġmessages": 6591,
      "Ġsalt": 6592,
      "Ġauthent": 6593,
      "Ġstronger": 6594,
      "ĠPoint": 6595,
      "Ġsupporting": 6596,
      "Ġment": 6597,
      "Ġelectron": 6598,
      "ĠScient": 6599,
      "Ġmedian": 6600,
      "pring": 6601,
      "ĠAny": 6602,
      "ester": 6603,
      "Ġcreativity": 6604,
      "Ġnp": 6605,
      "Ġ/>": 6606,
      "rian": 6607,
      "ĠCommission": 6608,
      "osa": 6609,
      "Ġpure": 6610,
      "ĠList": 6611,
      "Ġfant": 6612,
      "ĠMedicine": 6613,
      "Ġfab": 6614,
      "ulas": 6615,
      "Ġneut": 6616,
      "inte": 6617,
      "âĢĺ": 6618,
      "ĠĠĠĠĠ": 6619,
      "Ġrural": 6620,
      "ircraft": 6621,
      "ĠPractice": 6622,
      "Ġappoint": 6623,
      "verty": 6624,
      "Ġhero": 6625,
      "Ġgravity": 6626,
      "Ġvegetables": 6627,
      "ĠCult": 6628,
      "abil": 6629,
      "Joined": 6630,
      "Ġmaps": 6631,
      "Ġ150": 6632,
      "Ġnarratives": 6633,
      "rary": 6634,
      "Ġcris": 6635,
      "Ġprepare": 6636,
      "exp": 6637,
      "Ġpoverty": 6638,
      "Ġplastic": 6639,
      "ML": 6640,
      "Ġdeliver": 6641,
      "cycl": 6642,
      "Ġ_": 6643,
      "Ġends": 6644,
      "Ġinstructions": 6645,
      "Ġmal": 6646,
      "Ġreform": 6647,
      "asy": 6648,
      "imation": 6649,
      "Ġanxiety": 6650,
      "Ġtun": 6651,
      "ĠTer": 6652,
      "heets": 6653,
      "Ġdynamics": 6654,
      "Ġappeared": 6655,
      "ilience": 6656,
      "ching": 6657,
      "Ġengagement": 6658,
      "aste": 6659,
      "According": 6660,
      "Once": 6661,
      "Te": 6662,
      "Ġmostly": 6663,
      "Ġexperiments": 6664,
      "ĠLabor": 6665,
      "Bob": 6666,
      "Ġmatters": 6667,
      "Ġpull": 6668,
      "Gen": 6669,
      "Ġdepos": 6670,
      "Ġsen": 6671,
      "stream": 6672,
      "Ġages": 6673,
      "ĠEnvironmental": 6674,
      "body": 6675,
      "acent": 6676,
      "bability": 6677,
      "Ġkill": 6678,
      "Ġcognitive": 6679,
      "Ġtow": 6680,
      "ĠRef": 6681,
      "Ġdiscipl": 6682,
      "Do": 6683,
      "Ġenth": 6684,
      "Ġflight": 6685,
      "Ġextent": 6686,
      "Ġera": 6687,
      "roke": 6688,
      "offee": 6689,
      "ilateral": 6690,
      "ĠMet": 6691,
      "Ġnotation": 6692,
      "ĠPhysics": 6693,
      "ĠSometimes": 6694,
      "Ġfinite": 6695,
      "UT": 6696,
      "`.": 6697,
      "Ġvs": 6698,
      "Ġcouple": 6699,
      "Ġclust": 6700,
      "Ġmuscle": 6701,
      "Ġcapture": 6702,
      "riers": 6703,
      "ĠGraph": 6704,
      "Ġchief": 6705,
      "ndrome": 6706,
      "Ġwait": 6707,
      "Ġpossibility": 6708,
      "Ġlisten": 6709,
      "gent": 6710,
      "such": 6711,
      "Ġblocks": 6712,
      "ĠAnswer": 6713,
      "RC": 6714,
      "teen": 6715,
      "Ġcutting": 6716,
      "Ġapplying": 6717,
      "âĶ": 6718,
      "Ġstated": 6719,
      "fortunately": 6720,
      "ĠSal": 6721,
      "Ġplate": 6722,
      "Ġcommunicate": 6723,
      "ĠMil": 6724,
      "Ġsky": 6725,
      "Ġlaunch": 6726,
      "ĠSection": 6727,
      "idents": 6728,
      "Ġqual": 6729,
      "rightarrow": 6730,
      "Ġhabitat": 6731,
      "Ġcrops": 6732,
      "Ġpray": 6733,
      "Des": 6734,
      "ifications": 6735,
      "Ġpron": 6736,
      "Ġseeing": 6737,
      "Ġparagraph": 6738,
      "Ġplatforms": 6739,
      "Ġunlike": 6740,
      "Ġconcentration": 6741,
      "Ġedges": 6742,
      "Ġvertex": 6743,
      "rust": 6744,
      "Ġpolitics": 6745,
      "Figure": 6746,
      "Ġexciting": 6747,
      "inf": 6748,
      "Ġflowers": 6749,
      "Ġchronic": 6750,
      "Ġcyl": 6751,
      "Ġloved": 6752,
      "Ġinnovation": 6753,
      "ĠTHE": 6754,
      "Ġsensitive": 6755,
      "Ġdin": 6756,
      "ogy": 6757,
      "Ġpoet": 6758,
      "ĠTem": 6759,
      "83": 6760,
      "Ġrectangle": 6761,
      "ĠLibrary": 6762,
      "Ġemergency": 6763,
      "Ġimper": 6764,
      "Ġrepresenting": 6765,
      "Ġ180": 6766,
      "ĠDan": 6767,
      "Ġneither": 6768,
      "Ġlung": 6769,
      "Ġextended": 6770,
      "Ġpolice": 6771,
      "Ġgrid": 6772,
      "Ġarc": 6773,
      "Ġrecognized": 6774,
      "Ġ42": 6775,
      "Ġgained": 6776,
      "Ġrank": 6777,
      "luded": 6778,
      "Ġsignals": 6779,
      "erves": 6780,
      "ÃŃ": 6781,
      "Ġdatabase": 6782,
      "Although": 6783,
      "ĠCatholic": 6784,
      "ĠMuslim": 6785,
      "amm": 6786,
      "Ġfacilities": 6787,
      "Ġspecified": 6788,
      "Ġlayers": 6789,
      "inet": 6790,
      "Ġmoon": 6791,
      "Ġ37": 6792,
      "Ġlogical": 6793,
      "Ġcorpor": 6794,
      "ĠRetrieved": 6795,
      "Ġtension": 6796,
      "Ġrecorded": 6797,
      "Ġcritic": 6798,
      "Ġagricultural": 6799,
      "ĠUK": 6800,
      "Ġsettle": 6801,
      "Ġcorner": 6802,
      "Ġinfrastructure": 6803,
      "Ġaffects": 6804,
      "Ġintent": 6805,
      "Ġvibr": 6806,
      "Ġ2015": 6807,
      "Ġregulations": 6808,
      "Ġpossibilities": 6809,
      "ĠFranc": 6810,
      "Ġsam": 6811,
      "Ġcompound": 6812,
      "aturally": 6813,
      "91": 6814,
      "Ġintroduction": 6815,
      "ĠKey": 6816,
      "Ġtall": 6817,
      "Ġresponses": 6818,
      "Ġintersection": 6819,
      "ribe": 6820,
      "Ġfunding": 6821,
      "Ġ1999": 6822,
      "Ġaccounts": 6823,
      "Consider": 6824,
      "roid": 6825,
      "Ġbiological": 6826,
      "oxide": 6827,
      "Ġpassion": 6828,
      "Ġcooking": 6829,
      "leq": 6830,
      "Ġsimultane": 6831,
      "ĠComput": 6832,
      "udos": 6833,
      "Ġcontrolled": 6834,
      "Ġrou": 6835,
      "ena": 6836,
      "Ġchemicals": 6837,
      "umes": 6838,
      "UN": 6839,
      "Ġwilling": 6840,
      "Ġstanding": 6841,
      "ĠProte": 6842,
      "Ġpersist": 6843,
      "Per": 6844,
      "rh": 6845,
      "Ġalgorithms": 6846,
      "ĠEquations": 6847,
      "ĠFort": 6848,
      "Ġestimates": 6849,
      "fficients": 6850,
      "III": 6851,
      "ĠâĪĪ": 6852,
      "Ġaimed": 6853,
      "plot": 6854,
      "Ġleadership": 6855,
      "Ġscene": 6856,
      "ĠLake": 6857,
      "Ġunless": 6858,
      "ĠMax": 6859,
      "Ġconcerned": 6860,
      "Ġrealized": 6861,
      "Ġspeaking": 6862,
      "ĠTw": 6863,
      "ĠJose": 6864,
      "BN": 6865,
      "Ġfoster": 6866,
      "Ġ~": 6867,
      "Ġstands": 6868,
      "Ġdomestic": 6869,
      "ĠControl": 6870,
      "Ġdistributed": 6871,
      "Ġcouldn": 6872,
      "icon": 6873,
      "}=\\": 6874,
      "Rec": 6875,
      "ĠGood": 6876,
      "Ġmanif": 6877,
      "Ġstem": 6878,
      "ĠBet": 6879,
      "Ġsurvival": 6880,
      "Ġinjury": 6881,
      "ĠOffice": 6882,
      "Ġdesigns": 6883,
      "Ġexcl": 6884,
      "ĠOper": 6885,
      "Ġmassive": 6886,
      "Ġtoxic": 6887,
      "Ġdogs": 6888,
      "Ġlose": 6889,
      "Ġschem": 6890,
      "ðŁ": 6891,
      "Ġskill": 6892,
      "Ġcreatures": 6893,
      "lers": 6894,
      "Ġproducing": 6895,
      "ĠLouis": 6896,
      "Ġcomplicated": 6897,
      "ĠIr": 6898,
      "Ġcorrectly": 6899,
      "_{\\": 6900,
      "Ġwalking": 6901,
      "date": 6902,
      "Ġlie": 6903,
      "Ġwhereas": 6904,
      "ailed": 6905,
      "ĠNon": 6906,
      "Ġagencies": 6907,
      "beta": 6908,
      "Pre": 6909,
      "Ġretain": 6910,
      "Ġexpectations": 6911,
      "Ġscript": 6912,
      "appy": 6913,
      "Or": 6914,
      "itative": 6915,
      "appe": 6916,
      "Ġampl": 6917,
      "Ġemployed": 6918,
      "inition": 6919,
      "Ġrail": 6920,
      "Ġfaces": 6921,
      "Ġinteraction": 6922,
      "ĠArmy": 6923,
      "Ġsubstance": 6924,
      "Ġinfections": 6925,
      "Ġmyster": 6926,
      "Ġpassing": 6927,
      "Ġmechanisms": 6928,
      "ĠFlorida": 6929,
      "count": 6930,
      "Ġsmallest": 6931,
      "Ġappearance": 6932,
      "Ġcategories": 6933,
      ")]": 6934,
      "Ġremote": 6935,
      "ĠOnly": 6936,
      "ĠGoogle": 6937,
      "ĠProv": 6938,
      "Ġsector": 6939,
      "ĠTake": 6940,
      "Ġfacing": 6941,
      "Ġdifferential": 6942,
      "Ġdoctors": 6943,
      "Ġhence": 6944,
      "ĠMicro": 6945,
      "Ġfilter": 6946,
      "Ġfewer": 6947,
      "ÑĤ": 6948,
      "Ġmarketing": 6949,
      "Ġweap": 6950,
      "ĠComple": 6951,
      "ĠSci": 6952,
      "Ġmarks": 6953,
      "Ġgun": 6954,
      "Ġdependent": 6955,
      "Ġnine": 6956,
      "Ġperpendicular": 6957,
      "Ġtested": 6958,
      "Ġcomments": 6959,
      "ĠDig": 6960,
      "Ġnormally": 6961,
      "Ġcommunic": 6962,
      "eros": 6963,
      "Ġensures": 6964,
      "Ġslowly": 6965,
      "riend": 6966,
      "ditional": 6967,
      "ĠWhe": 6968,
      "ĠDoes": 6969,
      "abel": 6970,
      "Ġvolunte": 6971,
      "Ġadventure": 6972,
      "Of": 6973,
      "urb": 6974,
      "ĠIll": 6975,
      "Ġgrown": 6976,
      "Ġdangerous": 6977,
      "Ġentry": 6978,
      "Ġoptimal": 6979,
      "Ġ\\]": 6980,
      "ĠGold": 6981,
      "ĠVirginia": 6982,
      "Ġafford": 6983,
      "Ġdut": 6984,
      "Ġhearing": 6985,
      "IG": 6986,
      "ĠLong": 6987,
      "Ġsuccessfully": 6988,
      "Ġpurs": 6989,
      "Ġgram": 6990,
      "Ġagriculture": 6991,
      "Ġorganized": 6992,
      "burg": 6993,
      "Ġid": 6994,
      "Ġsuc": 6995,
      "ĠCalculate": 6996,
      "agers": 6997,
      "Ġscal": 6998,
      "Ġconven": 6999,
      "Ġlatter": 7000,
      "ĠHy": 7001,
      "etermine": 7002,
      "Ġ55": 7003,
      "Ġcomposition": 7004,
      "Ġresilience": 7005,
      "ĠBank": 7006,
      "ĠLook": 7007,
      "Ġcolleagues": 7008,
      "Ġmachines": 7009,
      "Ġfruits": 7010,
      "Ġadequ": 7011,
      "ĠRights": 7012,
      "Ġsole": 7013,
      "ĠMill": 7014,
      "Ġinterpretation": 7015,
      "Over": 7016,
      "Ġvehicles": 7017,
      "Ġarithmetic": 7018,
      "ĠBritain": 7019,
      "Ġshell": 7020,
      "Ġmarine": 7021,
      "Ġincredible": 7022,
      "Ġod": 7023,
      "Ġprofit": 7024,
      "Ġunus": 7025,
      "ĠCurrent": 7026,
      "Ġminute": 7027,
      "Ġwildlife": 7028,
      "Ġarrived": 7029,
      "Ġ65": 7030,
      "Ġattached": 7031,
      "Ab": 7032,
      "Ġcert": 7033,
      "Ġinitially": 7034,
      "Ġappreciation": 7035,
      "obe": 7036,
      "Ġphilosophy": 7037,
      "Ġstored": 7038,
      "Ġarmy": 7039,
      "}-": 7040,
      "Ġlargely": 7041,
      "Ġproduces": 7042,
      "utation": 7043,
      "Ġmeasuring": 7044,
      "UL": 7045,
      "Ġlik": 7046,
      ">[": 7047,
      "Ġregist": 7048,
      "eli": 7049,
      "Ġlens": 7050,
      "Ġcomparison": 7051,
      "DE": 7052,
      "abits": 7053,
      "ĠSystems": 7054,
      "Ġachieved": 7055,
      "Ġ400": 7056,
      "Math": 7057,
      "Ġexplains": 7058,
      "Ġdealing": 7059,
      "Ġ->": 7060,
      "Ġprofound": 7061,
      "Ġlots": 7062,
      "Ġattacks": 7063,
      "Ġessay": 7064,
      "Ġhorm": 7065,
      "Ġfle": 7066,
      "Ġsheet": 7067,
      "Ġhorse": 7068,
      "Ġinsight": 7069,
      "Ġperman": 7070,
      "ĠUnder": 7071,
      "ĠHence": 7072,
      "Ġrelax": 7073,
      "ĠFederal": 7074,
      "Ġconventional": 7075,
      "inomial": 7076,
      "Ġintroduce": 7077,
      "Ġconscious": 7078,
      "Ġï£": 7079,
      "ĠKore": 7080,
      "Ġparticipate": 7081,
      "ka": 7082,
      "ĠMag": 7083,
      "Ġobst": 7084,
      "Ġdivisible": 7085,
      "dig": 7086,
      "Ġstack": 7087,
      "Ġcoordinate": 7088,
      "Ġruns": 7089,
      "ĠHall": 7090,
      "Ġhaz": 7091,
      "pare": 7092,
      "Ġrely": 7093,
      "IM": 7094,
      "kin": 7095,
      "Ġpool": 7096,
      "Ġreasoning": 7097,
      "ipping": 7098,
      "http": 7099,
      "emic": 7100,
      "Ġcourses": 7101,
      "Ġdivisors": 7102,
      "ommod": 7103,
      "Ġmolecules": 7104,
      "Ġframework": 7105,
      "Ġminim": 7106,
      "ĠBro": 7107,
      "ĠCompany": 7108,
      "ĠIII": 7109,
      "Ġunexpected": 7110,
      "Sc": 7111,
      "Ġsoldiers": 7112,
      "ĠExt": 7113,
      "Ġpil": 7114,
      "ourse": 7115,
      "edge": 7116,
      "ĠCare": 7117,
      "Ġdeeply": 7118,
      "Ġregularly": 7119,
      "bles": 7120,
      "Ġexplicit": 7121,
      "SC": 7122,
      "ĠOrig": 7123,
      "Act": 7124,
      "Ġvertices": 7125,
      "Ġmarg": 7126,
      "Ġwitness": 7127,
      "];": 7128,
      "html": 7129,
      "Ġwarming": 7130,
      "Ġimplies": 7131,
      "Ġbread": 7132,
      "Ġvisible": 7133,
      "Ġimmediate": 7134,
      "82": 7135,
      "Ġexceed": 7136,
      "Ġmanaging": 7137,
      "hered": 7138,
      "ĠNor": 7139,
      "Ġtit": 7140,
      "ĠAccess": 7141,
      "Ġexercises": 7142,
      "Ġaccepted": 7143,
      "ĠDise": 7144,
      "During": 7145,
      "ĠWild": 7146,
      "ĠRussian": 7147,
      "ilon": 7148,
      "Ġelectronic": 7149,
      "ĠAbout": 7150,
      "inity": 7151,
      "ĠCharles": 7152,
      "Ġcircles": 7153,
      "uits": 7154,
      "Ġcorn": 7155,
      "Ġordered": 7156,
      "Ġinspired": 7157,
      "osh": 7158,
      "Ð¸": 7159,
      "Ġfell": 7160,
      "Ġkit": 7161,
      "ĠWomen": 7162,
      "ca": 7163,
      "ien": 7164,
      "Ġwww": 7165,
      "Ġhur": 7166,
      "ĠAmong": 7167,
      "Ġcompetition": 7168,
      "ercise": 7169,
      "Ġproteins": 7170,
      "Ġmaintenance": 7171,
      "Ġtone": 7172,
      "Ġdescript": 7173,
      "Ġpossibly": 7174,
      "]</": 7175,
      "Ġindigenous": 7176,
      "ibly": 7177,
      "Ġlisted": 7178,
      "Ġdialogue": 7179,
      "Ġdollars": 7180,
      "otion": 7181,
      "ashion": 7182,
      "'(": 7183,
      "ĠLinear": 7184,
      "ĠTable": 7185,
      "Ġlists": 7186,
      "ĠJohns": 7187,
      "Ġnit": 7188,
      "Ġfourth": 7189,
      "range": 7190,
      "Ġencounter": 7191,
      "ĠTotal": 7192,
      "ĠStudies": 7193,
      "ĠDespite": 7194,
      "Ġphrase": 7195,
      "ĠMichael": 7196,
      "Ġtrouble": 7197,
      "Ġexpertise": 7198,
      "ĠChic": 7199,
      "ĠSov": 7200,
      "Ġhouses": 7201,
      "ocratic": 7202,
      "Ġwestern": 7203,
      "Ġreplaced": 7204,
      "ĠBudd": 7205,
      "size": 7206,
      "Ġguaran": 7207,
      "ighter": 7208,
      "parameters": 7209,
      "war": 7210,
      "Ġmir": 7211,
      "Ġcoun": 7212,
      "Ġassemb": 7213,
      "Ġcube": 7214,
      "ĠMo": 7215,
      "Ġopened": 7216,
      "âĪļ": 7217,
      "Ġdrinking": 7218,
      "Ġmuseum": 7219,
      "Ġsed": 7220,
      "ĠConne": 7221,
      "Ġabuse": 7222,
      "Ġ95": 7223,
      "ĠMa": 7224,
      "this": 7225,
      "Ġagency": 7226,
      "Ġexamination": 7227,
      "Ġsick": 7228,
      "Ġwaiting": 7229,
      "Ġenables": 7230,
      "otics": 7231,
      "tic": 7232,
      "ĠThanks": 7233,
      "ums": 7234,
      "{(": 7235,
      "Ġphotos": 7236,
      "Ġgrew": 7237,
      "ĠBre": 7238,
      "Ġanalyzing": 7239,
      "Ġopinion": 7240,
      "Ġforests": 7241,
      "ĠThree": 7242,
      "Ġroutine": 7243,
      "Ġaircraft": 7244,
      "Ġmountain": 7245,
      "ĠRs": 7246,
      "Most": 7247,
      "car": 7248,
      "Ġcompass": 7249,
      "Ġeveryday": 7250,
      "ĠAnn": 7251,
      "Ġcart": 7252,
      "Ġsequences": 7253,
      "Ġnoticed": 7254,
      "Ġclock": 7255,
      "coming": 7256,
      "ĠStatistics": 7257,
      "Ġ!": 7258,
      "gers": 7259,
      "ĠDivision": 7260,
      "Ġtrend": 7261,
      "stein": 7262,
      "ĩĴ": 7263,
      "CT": 7264,
      "Ġwisdom": 7265,
      "craft": 7266,
      "hematic": 7267,
      "Ġdiagnosis": 7268,
      "ĠFree": 7269,
      "perties": 7270,
      "istan": 7271,
      "Ġvariation": 7272,
      "ĠGMAT": 7273,
      "Ass": 7274,
      "Em": 7275,
      "ĠType": 7276,
      "ircul": 7277,
      "Ġorient": 7278,
      "ĠðĿĳ": 7279,
      "ĠPsych": 7280,
      "Through": 7281,
      "Ġdepict": 7282,
      "Ġdebate": 7283,
      "Ġrecognition": 7284,
      "Ġmm": 7285,
      "Ġ2017": 7286,
      "ĠBible": 7287,
      "->": 7288,
      "Ġthri": 7289,
      ">>": 7290,
      "char": 7291,
      "Ġintervention": 7292,
      "Ġsplit": 7293,
      "Ġparticle": 7294,
      "ĠTre": 7295,
      "Ġcoffee": 7296,
      "Ġ1998": 7297,
      "Other": 7298,
      "Ġdust": 7299,
      "ested": 7300,
      "Ġvariance": 7301,
      "Ġprincipal": 7302,
      "Dr": 7303,
      "Ġdictionary": 7304,
      "Ġcontained": 7305,
      "Write": 7306,
      "ĠTreat": 7307,
      "ĠEmp": 7308,
      "ceived": 7309,
      "Ġenthus": 7310,
      "Ġadds": 7311,
      "ĠNO": 7312,
      "Ġexpensive": 7313,
      "}}$$": 7314,
      "cons": 7315,
      "dule": 7316,
      "Ġpresentation": 7317,
      "Ġcategory": 7318,
      "Ġmanaged": 7319,
      "Ġmemories": 7320,
      "stone": 7321,
      "ĠTags": 7322,
      "omega": 7323,
      "ĠFrank": 7324,
      "throp": 7325,
      "Ġheritage": 7326,
      "Ġïĥ": 7327,
      "Ġsucceed": 7328,
      "Ġnoise": 7329,
      "Ġwear": 7330,
      "Ġmarriage": 7331,
      "Ġalle": 7332,
      "Ġjump": 7333,
      "Ġcollective": 7334,
      "Ġneighborhood": 7335,
      "Ġ64": 7336,
      "ĠCy": 7337,
      "Alice": 7338,
      "Ġequally": 7339,
      "ĠÎ¸": 7340,
      "Ġturning": 7341,
      "Ġdesire": 7342,
      "last": 7343,
      "Ġresolution": 7344,
      "Ġvaccine": 7345,
      "Ġcenters": 7346,
      "Ġaf": 7347,
      "aming": 7348,
      "Ġemerging": 7349,
      "Ġminimize": 7350,
      "Ġteams": 7351,
      "Ġtrials": 7352,
      "antly": 7353,
      "Ġproved": 7354,
      "ENT": 7355,
      "}$,": 7356,
      "Ġdefinite": 7357,
      "Ġfinds": 7358,
      "Ġinsurance": 7359,
      "Ġtor": 7360,
      "tra": 7361,
      "Ġ2016": 7362,
      "ĠSolutions": 7363,
      "anes": 7364,
      "Part": 7365,
      "real": 7366,
      "under": 7367,
      "zen": 7368,
      "ĠRussia": 7369,
      "Ġarchitecture": 7370,
      "Ġdoubt": 7371,
      "ĠNature": 7372,
      "oto": 7373,
      "Ġfellow": 7374,
      "Ġforget": 7375,
      "ĠCommit": 7376,
      "ona": 7377,
      "Ġtap": 7378,
      "Ġadopted": 7379,
      "ented": 7380,
      "%.": 7381,
      "EP": 7382,
      "essions": 7383,
      "Ġcond": 7384,
      "Ġtwenty": 7385,
      "Ġconsideration": 7386,
      "xture": 7387,
      "Ġnaturally": 7388,
      "rates": 7389,
      "Ġconcrete": 7390,
      "Ġcamera": 7391,
      "Explanation": 7392,
      "hist": 7393,
      "Ġinvestigation": 7394,
      "Ġath": 7395,
      "Ġpurchase": 7396,
      "Ġidentifying": 7397,
      "attle": 7398,
      "Ġleaf": 7399,
      "Ġcompute": 7400,
      "Ġgreatly": 7401,
      "Ġdownload": 7402,
      "unning": 7403,
      "Ġcommitment": 7404,
      "Ġintricate": 7405,
      "Ġnegot": 7406,
      "Thus": 7407,
      "Ġcoefficients": 7408,
      "Ġsweet": 7409,
      "Ġpig": 7410,
      "ĠNative": 7411,
      "ĠHenry": 7412,
      "Ġfib": 7413,
      "ada": 7414,
      "lock": 7415,
      "Ġrevealed": 7416,
      "Error": 7417,
      "Introduction": 7418,
      "vi": 7419,
      "Ġfly": 7420,
      "HO": 7421,
      "ĠBob": 7422,
      "Ġempathy": 7423,
      "Ġbroken": 7424,
      "Ġneuro": 7425,
      "Ġtangent": 7426,
      "ĠHelp": 7427,
      "Ġfunctional": 7428,
      "IP": 7429,
      "Ġforth": 7430,
      "Ġremainder": 7431,
      "Ġequality": 7432,
      "rovers": 7433,
      "ĠYet": 7434,
      "Ġengaged": 7435,
      "ĠFrancis": 7436,
      "Ġinteractive": 7437,
      "Ġreject": 7438,
      "gs": 7439,
      "Ġmainly": 7440,
      "Ġfailed": 7441,
      "Ġmobile": 7442,
      "Ġmur": 7443,
      "Ġbrown": 7444,
      "aks": 7445,
      "Ġmedications": 7446,
      "Ġvitamin": 7447,
      "Ġmagical": 7448,
      "Ġliterary": 7449,
      "Ġpassage": 7450,
      "pm": 7451,
      "Ġnull": 7452,
      "Ġwish": 7453,
      "ĠMont": 7454,
      "Ġmoments": 7455,
      "default": 7456,
      "Ġevaluation": 7457,
      "ĠGuide": 7458,
      "ittle": 7459,
      "Ġstages": 7460,
      "ĠReal": 7461,
      "ĠStandard": 7462,
      "Ġwriters": 7463,
      "Ġsupplies": 7464,
      "ĠProfessor": 7465,
      "ĠSquare": 7466,
      "neg": 7467,
      "Ġpump": 7468,
      "Ġsan": 7469,
      "ĠStart": 7470,
      "Ġcuriosity": 7471,
      "Ġrecovery": 7472,
      "ĠAtt": 7473,
      "alley": 7474,
      "Ġreliable": 7475,
      "edy": 7476,
      "Ġsupplement": 7477,
      "Ġbutter": 7478,
      "lets": 7479,
      "Ġaccommod": 7480,
      "osc": 7481,
      "ĠTV": 7482,
      "Ġintellectual": 7483,
      "Ġpartner": 7484,
      "Ġdecline": 7485,
      "dt": 7486,
      "Ġdemonstrated": 7487,
      "Ġharvest": 7488,
      "aph": 7489,
      "ĠAdv": 7490,
      "Ġdy": 7491,
      "Ġsurfaces": 7492,
      "ĠLast": 7493,
      "Ġaqu": 7494,
      "Ġ44": 7495,
      "hedule": 7496,
      "ĠReport": 7497,
      "arguments": 7498,
      "Ġ38": 7499,
      "Ġsocietal": 7500,
      "Ġremarkable": 7501,
      "rat": 7502,
      "Ġtransmission": 7503,
      "ĠSym": 7504,
      "Ġvillage": 7505,
      "ttps": 7506,
      "Ġintersect": 7507,
      "ĠJun": 7508,
      "irect": 7509,
      "Ġnodes": 7510,
      "Ġextensive": 7511,
      "Ġobserve": 7512,
      "Ġboy": 7513,
      "ĠPC": 7514,
      "Are": 7515,
      "inction": 7516,
      "Ġcolumns": 7517,
      "ĠSea": 7518,
      "aval": 7519,
      "ĠWhere": 7520,
      "Ġnewsp": 7521,
      "Ġspin": 7522,
      "ĠResources": 7523,
      "Col": 7524,
      "Ġrecall": 7525,
      "Ġrestrict": 7526,
      "Ġprevention": 7527,
      "ading": 7528,
      "Ġcurriculum": 7529,
      "aser": 7530,
      "Ġbear": 7531,
      "Ġconflicts": 7532,
      "var": 7533,
      "asive": 7534,
      "Ġquantities": 7535,
      "Ġarms": 7536,
      "Ġstable": 7537,
      "Ġcrow": 7538,
      "Ġobservation": 7539,
      "Ġtick": 7540,
      "rets": 7541,
      "Ġmoist": 7542,
      "Ġran": 7543,
      "ĠColumb": 7544,
      "OC": 7545,
      "Ġaccum": 7546,
      "conne": 7547,
      "isation": 7548,
      "itivity": 7549,
      "Ġoverw": 7550,
      "Ġinstruments": 7551,
      "etime": 7552,
      "Ġoperator": 7553,
      "Ġvac": 7554,
      "ĠSarah": 7555,
      "Ġagreement": 7556,
      "Ġphotograph": 7557,
      "Ġsupports": 7558,
      "Ġcrop": 7559,
      "Ġdiscussing": 7560,
      "ĠNatural": 7561,
      "Ġadministration": 7562,
      "Ġbrings": 7563,
      "Ġmarkets": 7564,
      "Ġcrisis": 7565,
      "Ġoriginally": 7566,
      "Ġconsumers": 7567,
      "acher": 7568,
      "Ġbot": 7569,
      "Ġserving": 7570,
      "cyclop": 7571,
      "irty": 7572,
      "Ġboys": 7573,
      "Ġholding": 7574,
      "holders": 7575,
      "Î¸": 7576,
      "Ġbigger": 7577,
      "Ġrotation": 7578,
      "Ġrobust": 7579,
      "ugg": 7580,
      "Ġsecondary": 7581,
      "Ġincorporate": 7582,
      "aped": 7583,
      "Ġsuggestions": 7584,
      "ĠLand": 7585,
      "Ġspending": 7586,
      "ĠPop": 7587,
      "Ġ1997": 7588,
      "oric": 7589,
      "case": 7590,
      "ĠPo": 7591,
      "Ġexplo": 7592,
      "Ġarts": 7593,
      "ĠTor": 7594,
      "Ġox": 7595,
      "Ġpartial": 7596,
      "[]": 7597,
      "Ġrealm": 7598,
      "Ġnumerical": 7599,
      "Ġsizes": 7600,
      "Ġwhatever": 7601,
      "Ġlect": 7602,
      "Ġhabits": 7603,
      "Ġassistant": 7604,
      "Ġsupposed": 7605,
      "Ġtheories": 7606,
      "mented": 7607,
      "Ġagreed": 7608,
      "Ġkilomet": 7609,
      "Ġearn": 7610,
      "Right": 7611,
      "Ġtaste": 7612,
      "pread": 7613,
      "Ġtank": 7614,
      "ĠDet": 7615,
      "Ġheads": 7616,
      "Ġban": 7617,
      "ÂĿÂĳ": 7618,
      "ĠGal": 7619,
      "Ġconfir": 7620,
      "Ġyounger": 7621,
      "avy": 7622,
      "Ġrecy": 7623,
      "Ġcomfortable": 7624,
      "$$,": 7625,
      "Ġjoined": 7626,
      "Ġrub": 7627,
      "Ġrows": 7628,
      "}.": 7629,
      "Ġroof": 7630,
      "ĠPoly": 7631,
      "Ġpra": 7632,
      "Ġgone": 7633,
      "trans": 7634,
      "Ġtraum": 7635,
      "Ġmonitor": 7636,
      "Ġexponential": 7637,
      "ĠBefore": 7638,
      "Ġcubic": 7639,
      "Ġvisitors": 7640,
      "ĠThose": 7641,
      "Ġbutton": 7642,
      "weight": 7643,
      "Ġ1980": 7644,
      "ĠCreate": 7645,
      "Ġinterior": 7646,
      "Ġindependence": 7647,
      "Ġfeels": 7648,
      "ĠConstitution": 7649,
      "ĠCarolina": 7650,
      "ato": 7651,
      "Follow": 7652,
      "Ġdepartment": 7653,
      "Ġweigh": 7654,
      "ĠWrit": 7655,
      "lights": 7656,
      "Ġfunds": 7657,
      "=-": 7658,
      "ĠUt": 7659,
      "Ġposts": 7660,
      "Ġstability": 7661,
      "^(": 7662,
      "lements": 7663,
      "ĠEnd": 7664,
      "Ġperforming": 7665,
      "Ġregardless": 7666,
      "Ġeigen": 7667,
      "Ġstuff": 7668,
      "Ġshot": 7669,
      "Ġstre": 7670,
      "ĠOcean": 7671,
      "Ġartist": 7672,
      "Ġtechnological": 7673,
      "ĠAdminist": 7674,
      "abul": 7675,
      "Ġreactions": 7676,
      "ini": 7677,
      "Ġthereby": 7678,
      "Ġorganisms": 7679,
      "Ġworksh": 7680,
      ",'": 7681,
      "example": 7682,
      "ĠTitle": 7683,
      "Ġsphere": 7684,
      "Ġstreet": 7685,
      "Ġliver": 7686,
      "âĢĿ,": 7687,
      "American": 7688,
      "Ġhandling": 7689,
      "Ġmodified": 7690,
      "Î±": 7691,
      "Ġfriction": 7692,
      "Ġcycl": 7693,
      "Ġdirections": 7694,
      "ĠCanadian": 7695,
      "Ġcloud": 7696,
      "kins": 7697,
      "Ġcoin": 7698,
      "Ġsocieties": 7699,
      "Ġoccasion": 7700,
      "Ġsurvive": 7701,
      "cher": 7702,
      "Ġregul": 7703,
      "itual": 7704,
      "olit": 7705,
      "Ġteeth": 7706,
      "Ġprev": 7707,
      "IF": 7708,
      "ĠCreat": 7709,
      "icians": 7710,
      "ĠPass": 7711,
      "ĠVer": 7712,
      "ĠNext": 7713,
      "Ġauthorities": 7714,
      "ropical": 7715,
      "eless": 7716,
      "BT": 7717,
      "Ġpresc": 7718,
      "Ġethical": 7719,
      "Calcul": 7720,
      "Ġbattery": 7721,
      "Ġconj": 7722,
      "Ġaccessible": 7723,
      "Ġupdated": 7724,
      "Ġsolved": 7725,
      "Ġcurious": 7726,
      "Ġpreparation": 7727,
      "organ": 7728,
      "ĠBoard": 7729,
      "ĠJava": 7730,
      "Ġconcerning": 7731,
      "iology": 7732,
      "opes": 7733,
      "iat": 7734,
      "Ġdividing": 7735,
      "Ġtoler": 7736,
      "Ġsubsequent": 7737,
      "izer": 7738,
      "ĠForce": 7739,
      "uke": 7740,
      "just": 7741,
      "phone": 7742,
      "oting": 7743,
      "Ġwriter": 7744,
      "Ġlimitations": 7745,
      "Ġputting": 7746,
      "Ġartificial": 7747,
      "etch": 7748,
      "Ġaccident": 7749,
      "arn": 7750,
      "ĠTrue": 7751,
      "uts": 7752,
      "Ġgraphs": 7753,
      "Ġacting": 7754,
      "Ġbrand": 7755,
      "Ġhole": 7756,
      "Ġdeaths": 7757,
      "mic": 7758,
      "Ġprotected": 7759,
      "Ġsurve": 7760,
      "rine": 7761,
      "zed": 7762,
      "mas": 7763,
      "Ġnice": 7764,
      "Ġiter": 7765,
      "eps": 7766,
      "Ġbranch": 7767,
      "Ġgalax": 7768,
      "ocument": 7769,
      "Ġsought": 7770,
      "Ġsod": 7771,
      "ĠJoseph": 7772,
      "heric": 7773,
      "ĠIP": 7774,
      "Ġbridge": 7775,
      "ector": 7776,
      "aud": 7777,
      ".|": 7778,
      "Ġ1970": 7779,
      "Ġuniversity": 7780,
      "Ġstrange": 7781,
      "Ġdates": 7782,
      "Ġtrick": 7783,
      "ĠSer": 7784,
      "ĠParis": 7785,
      "Ġnurs": 7786,
      "Ġrealize": 7787,
      "Ġinherent": 7788,
      "lar": 7789,
      "ĠSing": 7790,
      "ĠPan": 7791,
      "Ġabstract": 7792,
      "Ġcircular": 7793,
      "Ġmeal": 7794,
      "ĠAcc": 7795,
      "ĠChicago": 7796,
      "cific": 7797,
      "arsh": 7798,
      "Ġinstitution": 7799,
      "Ġpapers": 7800,
      "OM": 7801,
      "Ġradical": 7802,
      "Ġcriteria": 7803,
      "fill": 7804,
      "oir": 7805,
      "Ġsight": 7806,
      "Ġlengths": 7807,
      "Ġ[?": 7808,
      "Ġfix": 7809,
      "Ġdaughter": 7810,
      "Ġpreserve": 7811,
      "usiness": 7812,
      "Ġpsychological": 7813,
      "Ġfocuses": 7814,
      "ĠColor": 7815,
      "Remember": 7816,
      "idespread": 7817,
      "Ġstead": 7818,
      "ĠBal": 7819,
      "ibl": 7820,
      "Ġpolar": 7821,
      "rium": 7822,
      "Ġparticipation": 7823,
      "ĠGlobal": 7824,
      "ĠSoviet": 7825,
      "List": 7826,
      "Ġusual": 7827,
      "Ġbag": 7828,
      "Ġreflection": 7829,
      "Ġpainting": 7830,
      "Ġengineers": 7831,
      "Ġinternet": 7832,
      "AG": 7833,
      "Ġdifficulty": 7834,
      "DP": 7835,
      "aria": 7836,
      "Ġcentre": 7837,
      "ïĢ": 7838,
      "ĠâĪļ": 7839,
      "UST": 7840,
      "onents": 7841,
      "Ġquarter": 7842,
      "wing": 7843,
      "Ġalgebraic": 7844,
      "Ġethnic": 7845,
      "Ġchildhood": 7846,
      "Ġserver": 7847,
      "Ġdataset": 7848,
      "pes": 7849,
      "Ġdispl": 7850,
      "scale": 7851,
      "ĠJo": 7852,
      "ĠYes": 7853,
      "Ġwhenever": 7854,
      "Ġraw": 7855,
      "draw": 7856,
      "Ġlegs": 7857,
      "Ġcontributions": 7858,
      "':": 7859,
      "Ġorth": 7860,
      "Ġabund": 7861,
      "Ġvote": 7862,
      "Ġalongside": 7863,
      "Ġinitiatives": 7864,
      "Ġdepart": 7865,
      "Ġtan": 7866,
      "ĠABC": 7867,
      "ĠChange": 7868,
      "hi": 7869,
      "Ġ<<": 7870,
      "Ġindustries": 7871,
      "()`": 7872,
      "Ġemerged": 7873,
      "ĠRome": 7874,
      "ĠRob": 7875,
      "asts": 7876,
      "^\\": 7877,
      "arks": 7878,
      "Ġformulas": 7879,
      "Ġsyndrome": 7880,
      "Ġswim": 7881,
      "ĠRevolution": 7882,
      "âĦ": 7883,
      "Ġ39": 7884,
      "Ġassumptions": 7885,
      "parent": 7886,
      "ĠFollow": 7887,
      "Ġhus": 7888,
      "ĠPeter": 7889,
      "Ġcomputing": 7890,
      "ltimately": 7891,
      "ĠCommittee": 7892,
      "Ġstake": 7893,
      "Ġcryst": 7894,
      "Ġconference": 7895,
      "Ġdecade": 7896,
      "Ġ2020": 7897,
      "Ġallerg": 7898,
      "App": 7899,
      "irt": 7900,
      "imer": 7901,
      "Ġ43": 7902,
      "jective": 7903,
      "Ġmomentum": 7904,
      "you": 7905,
      "Ġlowest": 7906,
      "opyright": 7907,
      "Ġ(\"": 7908,
      "Ġdetermining": 7909,
      "arest": 7910,
      "Ġdebt": 7911,
      "Ġordinary": 7912,
      "ĠZe": 7913,
      "Ġâī¤": 7914,
      "Ġinterpre": 7915,
      "UM": 7916,
      "ĠTimes": 7917,
      "Ġnutrients": 7918,
      "ita": 7919,
      "gence": 7920,
      "Ġalter": 7921,
      "andon": 7922,
      "ivery": 7923,
      "Ġsimplify": 7924,
      "Ġpreferences": 7925,
      ")|": 7926,
      "Ġcrime": 7927,
      "Ġcontrad": 7928,
      "Ġ[?]:": 7929,
      "``````": 7930,
      "ĠISBN": 7931,
      "oves": 7932,
      "values": 7933,
      "ĠDou": 7934,
      "Ġcomplement": 7935,
      "ĠExam": 7936,
      "Ġadm": 7937,
      "Ġeld": 7938,
      "Ġuniversal": 7939,
      "operation": 7940,
      "Ġentertain": 7941,
      "Ġfighting": 7942,
      "Ġoverwhel": 7943,
      "Ġcul": 7944,
      "Ġheavily": 7945,
      "Ġpregnancy": 7946,
      "ĠCap": 7947,
      "ohn": 7948,
      "Ġsteel": 7949,
      "ĠAlice": 7950,
      "Ġadministr": 7951,
      "ĠTry": 7952,
      "plant": 7953,
      "gov": 7954,
      "Ġbeings": 7955,
      "Am": 7956,
      "inated": 7957,
      "Ġmuscles": 7958,
      "points": 7959,
      "ĠFre": 7960,
      "Ġintervals": 7961,
      "ĠOnline": 7962,
      "Ġfossil": 7963,
      "Ġpreserving": 7964,
      "Based": 7965,
      "urning": 7966,
      "eq": 7967,
      "ĠMaths": 7968,
      "Ġintrig": 7969,
      "Ġ72": 7970,
      "ĠSouthern": 7971,
      "ĠOpen": 7972,
      "sts": 7973,
      "Ġreduces": 7974,
      "words": 7975,
      "ĠChem": 7976,
      "anda": 7977,
      "ĠConst": 7978,
      "Ġ1996": 7979,
      "HS": 7980,
      "Ġmovie": 7981,
      "Ġmatrices": 7982,
      "Ġcompr": 7983,
      "ĠFunctions": 7984,
      "isk": 7985,
      "Ġfabric": 7986,
      "Ġstyles": 7987,
      "Ġdistances": 7988,
      "ikip": 7989,
      "Ġpreced": 7990,
      "Ġmyself": 7991,
      "Ġassigned": 7992,
      "Ġforg": 7993,
      "sey": 7994,
      "Ġsomewhat": 7995,
      "Ġdance": 7996,
      "Yes": 7997,
      "Ġrom": 7998,
      "ureau": 7999,
      "Ġdefect": 8000,
      "Ġquart": 8001,
      "ĠItal": 8002,
      "Ġdistrict": 8003,
      "Ġauthentic": 8004,
      "earchers": 8005,
      "ĠInit": 8006,
      "ĠPubl": 8007,
      "Ġconstructed": 8008,
      "des": 8009,
      "Ġchick": 8010,
      "ĠNewton": 8011,
      "Ġenabling": 8012,
      "Ġorbit": 8013,
      "Ġelectro": 8014,
      "Ġmerely": 8015,
      "Ġ49": 8016,
      "?âĢĿ": 8017,
      "ĠModel": 8018,
      "friend": 8019,
      "Ġsimultaneously": 8020,
      "ĠProblems": 8021,
      "Ġunusual": 8022,
      "Ġsched": 8023,
      "Ġboost": 8024,
      "Ġwidespread": 8025,
      "heast": 8026,
      "Ġthrow": 8027,
      "ĠStreet": 8028,
      "Ġillustrate": 8029,
      "pled": 8030,
      "Two": 8031,
      "Ġ\\[": 8032,
      "ÑĢ": 8033,
      "oids": 8034,
      "RA": 8035,
      "Ġcontrovers": 8036,
      "called": 8037,
      "isp": 8038,
      "elled": 8039,
      "ĠExcel": 8040,
      "Ġinfluenced": 8041,
      "ua": 8042,
      "ĠEnc": 8043,
      "Ġhumanity": 8044,
      "ĠClin": 8045,
      "Ġeffectiveness": 8046,
      "Ġarbit": 8047,
      "irds": 8048,
      "Ġargue": 8049,
      "Please": 8050,
      "Ġclassic": 8051,
      "Lesson": 8052,
      "Ġaffecting": 8053,
      "Ġlaun": 8054,
      "placement": 8055,
      "Ð½": 8056,
      "Ġexhibit": 8057,
      "ĠBrown": 8058,
      "ÂłÂłÂłÂłÂłÂłÂłÂłÂłÂłÂłÂłÂłÂłÂłÂł": 8059,
      "Me": 8060,
      "uels": 8061,
      "Ġentered": 8062,
      "Ġcircul": 8063,
      "Ġrecommendations": 8064,
      "ctu": 8065,
      "ĠHaw": 8066,
      "Ġinfected": 8067,
      "Ġworse": 8068,
      "Ġprotocol": 8069,
      "ih": 8070,
      "anta": 8071,
      "ptic": 8072,
      "ooking": 8073,
      "Ġdemands": 8074,
      "ventions": 8075,
      "Ġinflamm": 8076,
      "Ġconfig": 8077,
      "Ġrecurs": 8078,
      "Ġinstruct": 8079,
      "Ġgreenhouse": 8080,
      "Ġgent": 8081,
      "Ġwouldn": 8082,
      "ĠWelcome": 8083,
      "Ġscenario": 8084,
      "Ġdefic": 8085,
      "Ġlifest": 8086,
      "oken": 8087,
      "Ġboundary": 8088,
      "Ġdisappe": 8089,
      "oons": 8090,
      "Total": 8091,
      "Ġreaching": 8092,
      "Hence": 8093,
      "Ġextend": 8094,
      "Ġgirl": 8095,
      "Ġimmers": 8096,
      "elesc": 8097,
      "Ġhappening": 8098,
      "ATION": 8099,
      "unc": 8100,
      "Ġlaboratory": 8101,
      "Ġtrac": 8102,
      "Ġalike": 8103,
      "Ġmitig": 8104,
      "Ġcontributed": 8105,
      "Ġacknowled": 8106,
      "ishment": 8107,
      "Ġcardi": 8108,
      "ione": 8109,
      "Ġcombinations": 8110,
      "Ġfav": 8111,
      "Ġ\\)": 8112,
      "Ġrequiring": 8113,
      "ployment": 8114,
      "olar": 8115,
      "ĠFund": 8116,
      "ĠFour": 8117,
      "sequently": 8118,
      "Key": 8119,
      "Ġcharacterized": 8120,
      "ĠEngineering": 8121,
      "ikipedia": 8122,
      "oving": 8123,
      "Ġadjacent": 8124,
      "Ġwheel": 8125,
      "Number": 8126,
      "Ġble": 8127,
      "Ġwise": 8128,
      "Ġaccurately": 8129,
      "Ġhousing": 8130,
      "Thanks": 8131,
      "ĠVolume": 8132,
      "Ġrestaur": 8133,
      "Ġtroops": 8134,
      "Ġaspir": 8135,
      "Ġflows": 8136,
      "ribution": 8137,
      "ĠColl": 8138,
      "Ġessentially": 8139,
      "vin": 8140,
      "Ġvariations": 8141,
      "ä¸": 8142,
      "Ġ__": 8143,
      "SP": 8144,
      "Ġconsumer": 8145,
      "Ġcovers": 8146,
      "Ġimplemented": 8147,
      "Ġsustainability": 8148,
      "Ġpip": 8149,
      "Ġ((": 8150,
      "Ġtight": 8151,
      "Ġshaped": 8152,
      "Ġexcited": 8153,
      "Ġtheme": 8154,
      "Ġmanufacturing": 8155,
      "Ġwatching": 8156,
      "~~": 8157,
      "Ġintegrated": 8158,
      "Ġpasses": 8159,
      "Ġ1995": 8160,
      "aus": 8161,
      "Ġsubstantial": 8162,
      "Ġroute": 8163,
      "UR": 8164,
      "Ġencourages": 8165,
      "Ñģ": 8166,
      "Ġscan": 8167,
      "Ġsuffering": 8168,
      "Ġ1960": 8169,
      "Kudos": 8170,
      "Ġoperate": 8171,
      "Ġtherap": 8172,
      "Ġfalls": 8173,
      "Ġwors": 8174,
      "ĠJohnson": 8175,
      "Also": 8176,
      "ĠAL": 8177,
      "EST": 8178,
      "Ġpy": 8179,
      "sigma": 8180,
      "Ed": 8181,
      "ĠMaybe": 8182,
      "inn": 8183,
      "Ġreceiving": 8184,
      "Ġthreats": 8185,
      "Ġjoy": 8186,
      "ĠTheory": 8187,
      "oral": 8188,
      "May": 8189,
      "orses": 8190,
      "ĠRichard": 8191,
      "Ġclub": 8192,
      "Ġharmful": 8193,
      "CH": 8194,
      "normal": 8195,
      "Ġforming": 8196,
      "ĠSpecial": 8197,
      "ocracy": 8198,
      "??": 8199,
      "edu": 8200,
      "âĨ": 8201,
      "Ġassert": 8202,
      "ĠSolve": 8203,
      "ffective": 8204,
      "Ġfairly": 8205,
      "Orig": 8206,
      "Ġflour": 8207,
      "Ġfacilitate": 8208,
      "Ġrising": 8209,
      "Ġcommitted": 8210,
      "Ġstatic": 8211,
      "ĠContin": 8212,
      "IR": 8213,
      "Ġcrew": 8214,
      "Ġemployment": 8215,
      "ĠLeg": 8216,
      "ĠHistorical": 8217,
      "ĠPerhaps": 8218,
      "Ġfashion": 8219,
      "Ġshut": 8220,
      "aked": 8221,
      "Ġmarginal": 8222,
      "Ġgrant": 8223,
      "ett": 8224,
      "Ġamid": 8225,
      "ĠClick": 8226,
      "Che": 8227,
      "ĠBig": 8228,
      "Ġcalculating": 8229,
      "Ã¶": 8230,
      "atal": 8231,
      "everal": 8232,
      "Ġmg": 8233,
      "Ġmechanical": 8234,
      "ĠDraw": 8235,
      "Ġinjuries": 8236,
      "itter": 8237,
      "Ġdioxide": 8238,
      "Ġcarrying": 8239,
      "Ġgro": 8240,
      "ette": 8241,
      "bered": 8242,
      "umn": 8243,
      "bing": 8244,
      "ĠSuper": 8245,
      "abulary": 8246,
      "Ġmechanism": 8247,
      "Ġatoms": 8248,
      "asters": 8249,
      "outs": 8250,
      "ilib": 8251,
      "IA": 8252,
      "Ġcash": 8253,
      "Ã³": 8254,
      "Ġvoc": 8255,
      "Ġdelay": 8256,
      "Ġdecor": 8257,
      "ĠGrade": 8258,
      "Ġstores": 8259,
      "Ġpresents": 8260,
      "à¯": 8261,
      "ora": 8262,
      "Ġcounting": 8263,
      "Ġunion": 8264,
      "ĠProbability": 8265,
      "igrants": 8266,
      "Ġartistic": 8267,
      "Ġimplementing": 8268,
      "ston": 8269,
      "ÃĤ": 8270,
      "ĠðŁ": 8271,
      "athered": 8272,
      "Man": 8273,
      "oices": 8274,
      ")}{": 8275,
      "ographical": 8276,
      "ĠAcademy": 8277,
      "ĠEth": 8278,
      "Ġexception": 8279,
      "eting": 8280,
      "Ġidentical": 8281,
      "ounce": 8282,
      "Ġindicated": 8283,
      "abs": 8284,
      "ascular": 8285,
      "ĠVict": 8286,
      "Ġballs": 8287,
      "ĠValley": 8288,
      "file": 8289,
      "hav": 8290,
      "ults": 8291,
      "Ġ<=": 8292,
      "ĠName": 8293,
      "Ġimmun": 8294,
      "Ġgradually": 8295,
      "Ġpersonality": 8296,
      "Ġcharacteristic": 8297,
      "ĠEarly": 8298,
      "Ġtube": 8299,
      "onds": 8300,
      "Ġphenomenon": 8301,
      "Ġvan": 8302,
      "Ġ52": 8303,
      "ï¼": 8304,
      "Ġintense": 8305,
      "ĠView": 8306,
      "IDS": 8307,
      "Ġcombine": 8308,
      "iki": 8309,
      "fish": 8310,
      "Ġsessions": 8311,
      "Ġconversations": 8312,
      "Ġsatellite": 8313,
      "Ġcaptiv": 8314,
      "telling": 8315,
      "Ġhonor": 8316,
      "Ġmedication": 8317,
      "ĠNations": 8318,
      "Ġmarried": 8319,
      "born": 8320,
      "Ġowner": 8321,
      "Ġconfident": 8322,
      "Ġnotable": 8323,
      "ĠKh": 8324,
      "Ġconstitution": 8325,
      ")/(": 8326,
      "Ġcontributing": 8327,
      "Ġstrictly": 8328,
      "Ġcoastal": 8329,
      "Ġspark": 8330,
      "Ġzone": 8331,
      "Lastly": 8332,
      "bin": 8333,
      "ĠBur": 8334,
      "ĠImp": 8335,
      "ideo": 8336,
      "cium": 8337,
      "Ġrocks": 8338,
      "Ġouter": 8339,
      "Ġdraft": 8340,
      "Ġmanager": 8341,
      "Ġcust": 8342,
      "Ġdelivery": 8343,
      "bridge": 8344,
      "Ġeastern": 8345,
      "ĠWord": 8346,
      "oples": 8347,
      "Ġrevenue": 8348,
      "Ġcot": 8349,
      "Ġbones": 8350,
      "ograp": 8351,
      "Ġquantum": 8352,
      "ĠProduct": 8353,
      "Ġobjectives": 8354,
      "books": 8355,
      "Ġblow": 8356,
      "ĠWood": 8357,
      "Read": 8358,
      "Bl": 8359,
      "Ġobstac": 8360,
      "Ġoun": 8361,
      "Ġabandon": 8362,
      "Ġembark": 8363,
      "Ġschedule": 8364,
      "forcement": 8365,
      "ĠEastern": 8366,
      "ĠMD": 8367,
      "Ġdiscrimination": 8368,
      "Ġsubsc": 8369,
      "Ġattempts": 8370,
      "Fe": 8371,
      "Ġadvantages": 8372,
      "ĠSuppose": 8373,
      "ĠPot": 8374,
      "umps": 8375,
      "âĢĶâĢĶ": 8376,
      "Ġmetab": 8377,
      "Ġveter": 8378,
      "rep": 8379,
      "inding": 8380,
      "Ġconnecting": 8381,
      "Ġtu": 8382,
      "Ġappeal": 8383,
      "ushed": 8384,
      "Ġfertil": 8385,
      "Ã¼": 8386,
      "Ġsacr": 8387,
      "ĠServices": 8388,
      "Ġarise": 8389,
      "Ġcomposed": 8390,
      "Ġadequate": 8391,
      "Ġdestroyed": 8392,
      "length": 8393,
      "pace": 8394,
      "Ġunable": 8395,
      "eck": 8396,
      "ĠLim": 8397,
      "linear": 8398,
      "eness": 8399,
      "Ġmeals": 8400,
      "tery": 8401,
      "Ġlistening": 8402,
      "onym": 8403,
      "azine": 8404,
      "ĠModern": 8405,
      "TH": 8406,
      "Ġinstances": 8407,
      "Ġcaught": 8408,
      "Ġscientist": 8409,
      "Ġteen": 8410,
      "Ġclothing": 8411,
      "ĠHappy": 8412,
      "Ġvideos": 8413,
      "chen": 8414,
      "night": 8415,
      "object": 8416,
      "esity": 8417,
      "300": 8418,
      "ello": 8419,
      "FF": 8420,
      "Ġearthqu": 8421,
      "Ġmetric": 8422,
      "ĠInvest": 8423,
      "Ġscenarios": 8424,
      "Ġvulnerable": 8425,
      "Ġdifferently": 8426,
      "Up": 8427,
      "Ġoral": 8428,
      "Ġtransc": 8429,
      "Ġbiology": 8430,
      "phant": 8431,
      "Because": 8432,
      "flo": 8433,
      "Ġvessels": 8434,
      "Ġcombining": 8435,
      "Ġbranches": 8436,
      "Ġorg": 8437,
      "Ġ46": 8438,
      "ordinary": 8439,
      "Ġpaths": 8440,
      "erted": 8441,
      "Ġimprovements": 8442,
      "Ġmac": 8443,
      "ras": 8444,
      "\\,": 8445,
      "Ġquot": 8446,
      "Ġtowns": 8447,
      "illa": 8448,
      "osion": 8449,
      "Ġended": 8450,
      "Ġmixture": 8451,
      "ĠSciences": 8452,
      "rey": 8453,
      "Ġclot": 8454,
      "Ġtheoretical": 8455,
      "Ġdefe": 8456,
      "Ġinher": 8457,
      "ĠCamp": 8458,
      "ĠLanguage": 8459,
      "ĠAgricult": 8460,
      "ĠMAT": 8461,
      "Ġ54": 8462,
      "Ġ56": 8463,
      "idential": 8464,
      "Pe": 8465,
      "Ġadvert": 8466,
      "Ġsampling": 8467,
      "ĠIndians": 8468,
      "Ġinch": 8469,
      "Ġassociation": 8470,
      "ĠBill": 8471,
      "ĠUSA": 8472,
      "ĠGeorg": 8473,
      "ano": 8474,
      "Ġchoosing": 8475,
      "Ġyields": 8476,
      "imeters": 8477,
      "ĠLo": 8478,
      "Ġborder": 8479,
      "Ġkin": 8480,
      "Ġvibrant": 8481,
      "itt": 8482,
      "Ġspecialized": 8483,
      "Ġsilver": 8484,
      "Ġefficiently": 8485,
      "Ġasc": 8486,
      "iences": 8487,
      "Ġships": 8488,
      "ĠCommunity": 8489,
      "Ġracial": 8490,
      "Ġintensity": 8491,
      "Ġbonds": 8492,
      "Ġprominent": 8493,
      "ressing": 8494,
      "anc": 8495,
      "Ġdriven": 8496,
      "\"\"": 8497,
      "Ġsurprising": 8498,
      "utch": 8499,
      "Ġnewly": 8500,
      "Ġcapabilities": 8501,
      "ependent": 8502,
      "Ġbrows": 8503,
      "ĠDev": 8504,
      "Ġcomparing": 8505,
      "ibilities": 8506,
      "Ġoutl": 8507,
      "medi": 8508,
      "ugh": 8509,
      "Ġgap": 8510,
      "Ġassumed": 8511,
      "Where": 8512,
      "endar": 8513,
      "ĠHand": 8514,
      "Ġeditor": 8515,
      "Ġdirected": 8516,
      "Ġescape": 8517,
      "Ġinhabit": 8518,
      "acts": 8519,
      ")=\\": 8520,
      "Ġconsec": 8521,
      "ĠDar": 8522,
      "Ġecosystems": 8523,
      "Ġinsects": 8524,
      "fulness": 8525,
      "*(": 8526,
      "Ġdisrupt": 8527,
      "Ġbeneficial": 8528,
      "Ġreverse": 8529,
      "Ġrhyth": 8530,
      "Out": 8531,
      "ĠMer": 8532,
      "Ġhydrogen": 8533,
      "âĶĢ": 8534,
      "ĠJac": 8535,
      "ĠSolving": 8536,
      "ĠSup": 8537,
      "Ġresulted": 8538,
      "Ġsession": 8539,
      "Ġmystery": 8540,
      "1000": 8541,
      "Ġmultiplying": 8542,
      "Ġfest": 8543,
      "Ġhistoric": 8544,
      "Ġminds": 8545,
      "ediat": 8546,
      "Ġguard": 8547,
      "lete": 8548,
      "Ġrivers": 8549,
      "Ġsymmetry": 8550,
      "oil": 8551,
      "Ġmemor": 8552,
      "Ġvarying": 8553,
      "Ġclassical": 8554,
      "Ne": 8555,
      "Ġtot": 8556,
      "lean": 8557,
      "Ġintu": 8558,
      "ĠTom": 8559,
      "Ġupdate": 8560,
      "erior": 8561,
      "Ġevolved": 8562,
      "uality": 8563,
      "mega": 8564,
      "Ġbanks": 8565,
      "ĠCode": 8566,
      "ĠRom": 8567,
      "Ġbreath": 8568,
      "Ġclarity": 8569,
      "kg": 8570,
      "();": 8571,
      "Ġovercome": 8572,
      "Ġversions": 8573,
      "ĠDifferent": 8574,
      "Ġpreval": 8575,
      "Ġ1994": 8576,
      "Despite": 8577,
      "Ġextension": 8578,
      "malink": 8579,
      "Ġcompelling": 8580,
      "Ġmodule": 8581,
      "ilibrium": 8582,
      "Ġparad": 8583,
      "Ġstrengthen": 8584,
      "Ġhomework": 8585,
      "=(": 8586,
      "Ġfer": 8587,
      "Ġ99": 8588,
      "Def": 8589,
      "Ġcongru": 8590,
      "ained": 8591,
      "argument": 8592,
      "Ġeducators": 8593,
      "}_": 8594,
      "igan": 8595,
      "ella": 8596,
      "Ġfounded": 8597,
      "Ġpermanent": 8598,
      "Rel": 8599,
      "Time": 8600,
      "Ġevil": 8601,
      "ĠClub": 8602,
      "ĠWall": 8603,
      "ĠLiter": 8604,
      "Just": 8605,
      "Ġrice": 8606,
      "ears": 8607,
      "ĠItaly": 8608,
      "ĠYoung": 8609,
      "Ġfriendly": 8610,
      "Ġmolecular": 8611,
      "Ġ\\,": 8612,
      "Ġathlet": 8613,
      "Ġcounty": 8614,
      "Ġunw": 8615,
      "ĠSat": 8616,
      "Ġoblig": 8617,
      "ĠStrateg": 8618,
      "orted": 8619,
      "bur": 8620,
      "indu": 8621,
      "Ġlibraries": 8622,
      "Ġrelat": 8623,
      "Ġherself": 8624,
      "olester": 8625,
      "mid": 8626,
      "je": 8627,
      "ĠViet": 8628,
      "Ġboxes": 8629,
      "ECT": 8630,
      "osph": 8631,
      "Ġ2018": 8632,
      "ĠDisease": 8633,
      "Ġbringing": 8634,
      "Ġpit": 8635,
      "ĠCross": 8636,
      "va": 8637,
      "Ġsharp": 8638,
      "blem": 8639,
      "soft": 8640,
      "ĠFull": 8641,
      "Ġlights": 8642,
      "oston": 8643,
      "ĠDC": 8644,
      "ĠBack": 8645,
      "Ġbits": 8646,
      "ĠSil": 8647,
      "ĠSpain": 8648,
      "Ġterritory": 8649,
      "Ġdevelopments": 8650,
      "Ġphenomena": 8651,
      "big": 8652,
      "Ġdil": 8653,
      "Ġcontrols": 8654,
      "ĠAustralian": 8655,
      "Ġstrings": 8656,
      "Ġagents": 8657,
      "Ġshed": 8658,
      "Ġconclude": 8659,
      "ĠCase": 8660,
      "non": 8661,
      "sim": 8662,
      "Ġweakness": 8663,
      "elihood": 8664,
      "Ġfract": 8665,
      "Ġedition": 8666,
      "uity": 8667,
      "Ð¾Ð": 8668,
      "zil": 8669,
      "Ġ00": 8670,
      "Ġrevised": 8671,
      "------------": 8672,
      "Ġfinished": 8673,
      "ĠFamily": 8674,
      "ĠMartin": 8675,
      "vari": 8676,
      "Ġdefault": 8677,
      "Ge": 8678,
      "Mat": 8679,
      "Ġbalanced": 8680,
      "vance": 8681,
      "ĠCancer": 8682,
      "Ġtutorial": 8683,
      "there": 8684,
      "Ġmales": 8685,
      "asty": 8686,
      "ĠDen": 8687,
      "Ġuncertainty": 8688,
      "Ġedited": 8689,
      "Ġtranslation": 8690,
      "Comm": 8691,
      "permalink": 8692,
      "Ġcomprom": 8693,
      "hma": 8694,
      "ĠDetermine": 8695,
      "Ġembracing": 8696,
      "ĠItalian": 8697,
      "ulin": 8698,
      "Ġroughly": 8699,
      "\\[": 8700,
      "Ġranging": 8701,
      "Ø§": 8702,
      "Ġprotecting": 8703,
      "ĠGrand": 8704,
      "OP": 8705,
      "reek": 8706,
      "angers": 8707,
      "Ġidentities": 8708,
      "div": 8709,
      "public": 8710,
      "Delta": 8711,
      "Ġanticip": 8712,
      "Ġcalculus": 8713,
      "Ġhaven": 8714,
      "Add": 8715,
      "Ġintake": 8716,
      "onday": 8717,
      "Ġtons": 8718,
      "Ġlearners": 8719,
      "Ġpublication": 8720,
      "Ġemployee": 8721,
      "Ġdot": 8722,
      "ĠPlay": 8723,
      "Ġdiffer": 8724,
      "Ġapproved": 8725,
      "index": 8726,
      "Ġ85": 8727,
      "Ġlegislation": 8728,
      "etics": 8729,
      "avery": 8730,
      "Ġsitting": 8731,
      "Ġinspiration": 8732,
      "Ġhealing": 8733,
      "Ġproportional": 8734,
      "ĠID": 8735,
      "Ġpromise": 8736,
      "Ġconverted": 8737,
      "Ġfurn": 8738,
      "ifier": 8739,
      "Ġphoto": 8740,
      "ĠAtlantic": 8741,
      "erals": 8742,
      "Ġinvestigate": 8743,
      "ĠGa": 8744,
      "Ġtrained": 8745,
      "compass": 8746,
      "ĠGard": 8747,
      "Ġcoins": 8748,
      "ĠRock": 8749,
      "Ġchrom": 8750,
      "Ġrefuge": 8751,
      "Ġyes": 8752,
      "Ġnumerator": 8753,
      "aired": 8754,
      "Ġdimension": 8755,
      "ĠMUST": 8756,
      "Reg": 8757,
      "ĠNOT": 8758,
      "Ġenemy": 8759,
      "agnetic": 8760,
      "MP": 8761,
      "Ġunity": 8762,
      "Ġquiet": 8763,
      "ï¿½ï¿½": 8764,
      "ostic": 8765,
      "Ġdisaster": 8766,
      "Ġsoph": 8767,
      "Ġconstraints": 8768,
      "MA": 8769,
      "idity": 8770,
      "brace": 8771,
      "Ġfemales": 8772,
      "Ġbene": 8773,
      "Ġmand": 8774,
      "Ġelection": 8775,
      "Ġtraveling": 8776,
      "ĠAsian": 8777,
      "cyclopedia": 8778,
      "Ġped": 8779,
      "Ġcombat": 8780,
      "Mod": 8781,
      "ĠLab": 8782,
      "Ġnotion": 8783,
      "Ġsubtle": 8784,
      "ĠTogether": 8785,
      "ĠNorthern": 8786,
      "Ġ${": 8787,
      "neys": 8788,
      "Ġvisited": 8789,
      "lessly": 8790,
      "ĠIV": 8791,
      "ĠAsk": 8792,
      "\\;": 8793,
      "Ġtack": 8794,
      "Ġvolcan": 8795,
      "Ġpreventing": 8796,
      "Ġepid": 8797,
      "Ġorders": 8798,
      "Ġbreaking": 8799,
      "Ġstrategic": 8800,
      "Ġsubstances": 8801,
      "========": 8802,
      "ĠClimate": 8803,
      "ĠSecret": 8804,
      "ĠIns": 8805,
      "Ġwine": 8806,
      "Today": 8807,
      "Ġperimeter": 8808,
      "ansas": 8809,
      "ieval": 8810,
      "ĠÂ©": 8811,
      "Ġdetection": 8812,
      "Sum": 8813,
      "ĠVe": 8814,
      "tles": 8815,
      "ounded": 8816,
      "theless": 8817,
      "Ġinn": 8818,
      "Ġmusical": 8819,
      "Ġaer": 8820,
      "!)": 8821,
      "Ġcream": 8822,
      "Ġturb": 8823,
      "Ġinstalled": 8824,
      "iii": 8825,
      "Ġselling": 8826,
      "aska": 8827,
      "Ġemphasis": 8828,
      "Ġsigned": 8829,
      "Ġbarriers": 8830,
      "rip": 8831,
      "liament": 8832,
      "Ġseparated": 8833,
      "Ġversus": 8834,
      "Ġissued": 8835,
      "afety": 8836,
      "opic": 8837,
      "Ġreaches": 8838,
      "Ġcompounds": 8839,
      "400": 8840,
      "Ġboat": 8841,
      "Ġsquared": 8842,
      "Ġlaid": 8843,
      "Ġfeeding": 8844,
      "Ġproviders": 8845,
      "iations": 8846,
      "Ġtelevision": 8847,
      "ĠJeff": 8848,
      "cap": 8849,
      "atial": 8850,
      "ĠEmpire": 8851,
      "Ġprohib": 8852,
      "ĠLesson": 8853,
      "rooms": 8854,
      "CE": 8855,
      "oln": 8856,
      "Ġinterface": 8857,
      "olesterol": 8858,
      "Ġgrams": 8859,
      "ĠÎ±": 8860,
      "Hi": 8861,
      "Ġreward": 8862,
      "Ġnucle": 8863,
      "ba": 8864,
      "iability": 8865,
      "Ġexplored": 8866,
      "ths": 8867,
      "wered": 8868,
      "Ġinspire": 8869,
      "Ġencouraging": 8870,
      "arithm": 8871,
      "tools": 8872,
      "norm": 8873,
      "Ġhighlights": 8874,
      "Ġannounced": 8875,
      "Ġdefinitions": 8876,
      "aws": 8877,
      "ĠObs": 8878,
      "ĠAngel": 8879,
      "iture": 8880,
      "Ġextraordinary": 8881,
      "Ġfrequent": 8882,
      "Sec": 8883,
      "ĠBuilding": 8884,
      "apse": 8885,
      "Ġ41": 8886,
      "ĠNetwork": 8887,
      "ĠWindows": 8888,
      "Ġbeneath": 8889,
      "Ġdetermination": 8890,
      "Ġdiagonal": 8891,
      "ĠMad": 8892,
      "Ġinfluences": 8893,
      "Ġru": 8894,
      "Ġpsychology": 8895,
      "kl": 8896,
      "ucky": 8897,
      "aded": 8898,
      "ĠSund": 8899,
      "%,": 8900,
      "Get": 8901,
      "Ġsuffer": 8902,
      "OD": 8903,
      "Ġstrongly": 8904,
      "Ġantibi": 8905,
      "Ġfung": 8906,
      "ĠÂ»": 8907,
      "cho": 8908,
      "ucl": 8909,
      "Ġhem": 8910,
      "``//": 8911,
      "Ġdifficulties": 8912,
      "acies": 8913,
      "Ġcompassion": 8914,
      "version": 8915,
      "Ġconsiderable": 8916,
      "rink": 8917,
      "ĠNever": 8918,
      "bel": 8919,
      "Ġcylinder": 8920,
      "Ġhusband": 8921,
      "rape": 8922,
      "sl": 8923,
      "ĠNC": 8924,
      "ĠJack": 8925,
      "Ġcharged": 8926,
      "She": 8927,
      "Ġlaunched": 8928,
      "Ġgiant": 8929,
      "zero": 8930,
      "eties": 8931,
      "asures": 8932,
      "Ġincorrect": 8933,
      "Ġdestruction": 8934,
      "ĠAdministration": 8935,
      "%)": 8936,
      "Ġsuf": 8937,
      "Ġsecrets": 8938,
      "onomic": 8939,
      "ĠSecurity": 8940,
      "Ġbiggest": 8941,
      "Mult": 8942,
      ")^{": 8943,
      "Ġstom": 8944,
      "Ġconfirm": 8945,
      "Ġseemingly": 8946,
      "Ġmultiplied": 8947,
      "fection": 8948,
      "Ġassumption": 8949,
      "Ġemotion": 8950,
      "Ġnearest": 8951,
      "ĠAssess": 8952,
      "Ġchannel": 8953,
      "Ġmeter": 8954,
      "Ġexpanded": 8955,
      "Ġflag": 8956,
      "Ġkeeps": 8957,
      "Ġdiver": 8958,
      "${\\": 8959,
      "ogical": 8960,
      "mers": 8961,
      "ĠScott": 8962,
      "Ġreasonable": 8963,
      "John": 8964,
      "inite": 8965,
      "quality": 8966,
      "Ġconstantly": 8967,
      "Ġweapons": 8968,
      "Ġcharges": 8969,
      "Ġeliminate": 8970,
      "acci": 8971,
      "Ġencouraged": 8972,
      "ĠMel": 8973,
      "Ġroads": 8974,
      "avors": 8975,
      "erts": 8976,
      "Ġstructural": 8977,
      "Ġcounsel": 8978,
      "Ġavailability": 8979,
      "ĠPrime": 8980,
      "Ġminimal": 8981,
      "Ġfiber": 8982,
      "izz": 8983,
      "Ġprecision": 8984,
      "Ġ47": 8985,
      "ailing": 8986,
      "Ġcats": 8987,
      "sell": 8988,
      "Ġ250": 8989,
      "Ġspan": 8990,
      "root": 8991,
      "ĠOx": 8992,
      "Ġcontamin": 8993,
      "Ġwebsites": 8994,
      "><|": 8995,
      "ude": 8996,
      "Lear": 8997,
      "Ġautomatically": 8998,
      "Ġislands": 8999,
      "Ġpin": 9000,
      "Ġpracticing": 9001,
      "Ġfro": 9002,
      "Ġconfront": 9003,
      "Ġaward": 9004,
      "icide": 9005,
      "omorph": 9006,
      "Ġsmoke": 9007,
      "Ġinhib": 9008,
      "Ġcaptured": 9009,
      "Ġnest": 9010,
      "Ġtact": 9011,
      "ĠConservation": 9012,
      "SD": 9013,
      "Ġtub": 9014,
      "ythag": 9015,
      "ylvan": 9016,
      "120": 9017,
      "path": 9018,
      "Ġtraits": 9019,
      "Ġpoetry": 9020,
      "}[": 9021,
      "ĠCP": 9022,
      "ĠPlace": 9023,
      "Ġexperimental": 9024,
      "Ġrenewable": 9025,
      "otherapy": 9026,
      "ĠSeries": 9027,
      "ĠOhio": 9028,
      "Ġmaintained": 9029,
      "ĠCub": 9030,
      "Ġmeth": 9031,
      "Answer": 9032,
      "ulty": 9033,
      "Ġfeat": 9034,
      "ĠParty": 9035,
      "Ġlegisl": 9036,
      "Ġtrigon": 9037,
      "Ġprotagon": 9038,
      "Ġprinted": 9039,
      "Ġacute": 9040,
      "Ġfacility": 9041,
      "Ġtea": 9042,
      "Ġlifestyle": 9043,
      "Ġalive": 9044,
      "Ġtreating": 9045,
      "comp": 9046,
      "vol": 9047,
      "ailable": 9048,
      "Ġnerv": 9049,
      "Ġcommission": 9050,
      "Ġpuzzle": 9051,
      "door": 9052,
      "Ġrelief": 9053,
      "Ġpanel": 9054,
      "Ġshock": 9055,
      "Ġinterventions": 9056,
      "Ġmild": 9057,
      "lic": 9058,
      "ĠEss": 9059,
      "inate": 9060,
      "Ġofficers": 9061,
      "800": 9062,
      "uis": 9063,
      "Ġbreathing": 9064,
      "Ġmood": 9065,
      "Ġclients": 9066,
      "Ġcolonial": 9067,
      "Ġmountains": 9068,
      "Ġlosses": 9069,
      "Ġvisiting": 9070,
      "also": 9071,
      "Ġclar": 9072,
      "Ġpeoples": 9073,
      "ĠAgency": 9074,
      "Ġpriorit": 9075,
      "ĠForest": 9076,
      "Ġvictims": 9077,
      "including": 9078,
      "ye": 9079,
      "ĠSelect": 9080,
      "ulus": 9081,
      "ĠConsequently": 9082,
      "Ġaims": 9083,
      "Ġ||": 9084,
      "Ġqualities": 9085,
      "Ġdispar": 9086,
      "Ġcrim": 9087,
      "ima": 9088,
      "Ġarrest": 9089,
      ",-": 9090,
      "Ġstations": 9091,
      "ĠCa": 9092,
      "Ġperfectly": 9093,
      "Ġ2019": 9094,
      "CM": 9095,
      "Ġlbs": 9096,
      "brew": 9097,
      "ĠBasic": 9098,
      "ĠLittle": 9099,
      "ĠSupport": 9100,
      "Ġdiscount": 9101,
      "Ġflexible": 9102,
      "Ġconclusions": 9103,
      "Ġmic": 9104,
      "ady": 9105,
      "Ġisolated": 9106,
      "ĠWal": 9107,
      "Ġ(\\": 9108,
      "Ġproductivity": 9109,
      "Ġhonest": 9110,
      "ĉĉ": 9111,
      "iner": 9112,
      "Ġseat": 9113,
      "di": 9114,
      "Ġenhancing": 9115,
      "Ġposted": 9116,
      "power": 9117,
      "Ġ_{": 9118,
      "Ġdefense": 9119,
      "Ġhall": 9120,
      "ĠHill": 9121,
      "Ġshorter": 9122,
      "Ġunders": 9123,
      "Ġforecast": 9124,
      "Ġsoul": 9125,
      "Ġhorses": 9126,
      "Ġstroke": 9127,
      "Ġnorms": 9128,
      "Ġplanned": 9129,
      "Ġsunlight": 9130,
      "through": 9131,
      "Ġoccurring": 9132,
      "Ġtaxes": 9133,
      "Ġcups": 9134,
      "Ġlock": 9135,
      "dep": 9136,
      "Ġgrows": 9137,
      "TER": 9138,
      "Ġchannels": 9139,
      "Ġpound": 9140,
      "ĠRoyal": 9141,
      "Ġhyp": 9142,
      "Ġdeclared": 9143,
      "Ġmathematic": 9144,
      "âĶĢâĶĢ": 9145,
      "ĠSearch": 9146,
      "Ġdoors": 9147,
      "uesday": 9148,
      "rot": 9149,
      "ĠProm": 9150,
      "Ġcompens": 9151,
      "}^{\\": 9152,
      "Ġfarming": 9153,
      "ĠInteg": 9154,
      "ĠHor": 9155,
      "Ġmile": 9156,
      "ĠChristianity": 9157,
      "Ġwonderful": 9158,
      "Ġsuit": 9159,
      "Ġrecognizing": 9160,
      "Ġtip": 9161,
      "ĠLight": 9162,
      "Ġwondered": 9163,
      "Ġcas": 9164,
      "ĠBoston": 9165,
      "haust": 9166,
      "ĠCoast": 9167,
      "rus": 9168,
      "Ġcalling": 9169,
      "Ġcovering": 9170,
      "Ġpermission": 9171,
      "Ġepis": 9172,
      "iply": 9173,
      "okes": 9174,
      "ocolate": 9175,
      "Ġconve": 9176,
      "foot": 9177,
      "ĠIdentify": 9178,
      "ĠIre": 9179,
      "ĠEvalu": 9180,
      "Ġfever": 9181,
      "Ġevening": 9182,
      "ĠCalculus": 9183,
      "Ġexcessive": 9184,
      "isters": 9185,
      "Ġprofile": 9186,
      "ĠSand": 9187,
      "Ġthy": 9188,
      "Ġviewed": 9189,
      "rame": 9190,
      "Ġstreets": 9191,
      "ĠIndigenous": 9192,
      "Ġrepair": 9193,
      "Ġminus": 9194,
      "ĠColumbia": 9195,
      "Ġsophistic": 9196,
      "Best": 9197,
      "jo": 9198,
      "adder": 9199,
      "ĠLearn": 9200,
      "Ġclient": 9201,
      "Ġempower": 9202,
      "Ġstruggles": 9203,
      "Ġchose": 9204,
      "init": 9205,
      "Ġchances": 9206,
      "enger": 9207,
      "ĠCrit": 9208,
      "Val": 9209,
      "Ġsou": 9210,
      "Ġille": 9211,
      "Ġanywhere": 9212,
      "ĠHomework": 9213,
      "dict": 9214,
      "ĠPosted": 9215,
      "Even": 9216,
      "friendly": 9217,
      "Ġcompetitive": 9218,
      "Ġcycles": 9219,
      "atus": 9220,
      "Ġsubset": 9221,
      "reated": 9222,
      "Ġessence": 9223,
      "Ġprecisely": 9224,
      "ĠMid": 9225,
      "etary": 9226,
      "Ġincident": 9227,
      "Line": 9228,
      "rid": 9229,
      "Ġsurprise": 9230,
      "ĠAT": 9231,
      "ref": 9232,
      "Each": 9233,
      "first": 9234,
      "Ġelectrons": 9235,
      "ĠĠĠĠĠĠ": 9236,
      "Ġcalcium": 9237,
      "ylvania": 9238,
      "Ġholes": 9239,
      "ĠFall": 9240,
      "Ġneck": 9241,
      "Ġproven": 9242,
      "Ġcorrel": 9243,
      "Ġmodeling": 9244,
      "ĠEmer": 9245,
      "Ġcontexts": 9246,
[...]
